{
  "version": "1.0",
  "truncation": null,
  "padding": null,
  "added_tokens": [
    {
      "id": 0,
      "content": "<|unk|>",
      "single_word": false,
      "lstrip": false,
      "rstrip": false,
      "normalized": false,
      "special": true
    },
    {
      "id": 1,
      "content": "<|pad|>",
      "single_word": false,
      "lstrip": false,
      "rstrip": false,
      "normalized": false,
      "special": true
    },
    {
      "id": 2,
      "content": "<|eos|>",
      "single_word": false,
      "lstrip": false,
      "rstrip": false,
      "normalized": false,
      "special": true
    },
    {
      "id": 3,
      "content": "<|story|>",
      "single_word": false,
      "lstrip": false,
      "rstrip": false,
      "normalized": false,
      "special": true
    },
    {
      "id": 4,
      "content": "<|question|>",
      "single_word": false,
      "lstrip": false,
      "rstrip": false,
      "normalized": false,
      "special": true
    },
    {
      "id": 5,
      "content": "<|answer|>",
      "single_word": false,
      "lstrip": false,
      "rstrip": false,
      "normalized": false,
      "special": true
    }
  ],
  "normalizer": null,
  "pre_tokenizer": {
    "type": "ByteLevel",
    "add_prefix_space": false,
    "trim_offsets": true,
    "use_regex": true
  },
  "post_processor": null,
  "decoder": null,
  "model": {
    "type": "BPE",
    "dropout": null,
    "unk_token": "<|unk|>",
    "continuing_subword_prefix": null,
    "end_of_word_suffix": null,
    "fuse_unk": false,
    "byte_fallback": false,
    "ignore_merges": false,
    "vocab": {
      "<|unk|>": 0,
      "<|pad|>": 1,
      "<|eos|>": 2,
      "<|story|>": 3,
      "<|question|>": 4,
      "<|answer|>": 5,
      "!": 6,
      "\"": 7,
      "$": 8,
      "&": 9,
      "'": 10,
      "(": 11,
      ")": 12,
      "*": 13,
      "+": 14,
      ",": 15,
      "-": 16,
      ".": 17,
      "/": 18,
      "0": 19,
      "1": 20,
      "2": 21,
      "3": 22,
      "4": 23,
      "5": 24,
      "6": 25,
      "7": 26,
      "8": 27,
      "9": 28,
      ":": 29,
      ";": 30,
      "<": 31,
      ">": 32,
      "?": 33,
      "A": 34,
      "B": 35,
      "C": 36,
      "D": 37,
      "E": 38,
      "F": 39,
      "G": 40,
      "H": 41,
      "I": 42,
      "J": 43,
      "K": 44,
      "L": 45,
      "M": 46,
      "N": 47,
      "O": 48,
      "P": 49,
      "Q": 50,
      "R": 51,
      "S": 52,
      "T": 53,
      "U": 54,
      "V": 55,
      "W": 56,
      "X": 57,
      "Y": 58,
      "Z": 59,
      "_": 60,
      "`": 61,
      "a": 62,
      "b": 63,
      "c": 64,
      "d": 65,
      "e": 66,
      "f": 67,
      "g": 68,
      "h": 69,
      "i": 70,
      "j": 71,
      "k": 72,
      "l": 73,
      "m": 74,
      "n": 75,
      "o": 76,
      "p": 77,
      "q": 78,
      "r": 79,
      "s": 80,
      "t": 81,
      "u": 82,
      "v": 83,
      "w": 84,
      "x": 85,
      "y": 86,
      "z": 87,
      "|": 88,
      "¡": 89,
      "¢": 90,
      "¦": 91,
      "©": 92,
      "«": 93,
      "¬": 94,
      "°": 95,
      "±": 96,
      "³": 97,
      "´": 98,
      "»": 99,
      "Â": 100,
      "Ã": 101,
      "Å": 102,
      "Ë": 103,
      "â": 104,
      "ĉ": 105,
      "Ċ": 106,
      "č": 107,
      "Ġ": 108,
      "Ģ": 109,
      "Ĥ": 110,
      "ĥ": 111,
      "Ħ": 112,
      "ĵ": 113,
      "ľ": 114,
      "Ŀ": 115,
      "ł": 116,
      "he": 117,
      "Ġt": 118,
      "Ġa": 119,
      "Ġs": 120,
      "nd": 121,
      "Ġw": 122,
      "Ġthe": 123,
      "čĊ": 124,
      "ed": 125,
      "Ġand": 126,
      "Ġto": 127,
      "Ġb": 128,
      "in": 129,
      "Ġh": 130,
      "Ġwa": 131,
      "re": 132,
      "Ġf": 133,
      "ou": 134,
      "it": 135,
      "Ġl": 136,
      "Ġc": 137,
      "Ġd": 138,
      "er": 139,
      "Ġhe": 140,
      "Ġm": 141,
      "Ġp": 142,
      "Ġwas": 143,
      "om": 144,
      "ĠT": 145,
      "Ġo": 146,
      "ay": 147,
      "ar": 148,
      "is": 149,
      "ing": 150,
      "il": 151,
      "Ġg": 152,
      "id": 153,
      "at": 154,
      "en": 155,
      "Ġn": 156,
      "Ġsa": 157,
      "Ġha": 158,
      "ĠS": 159,
      "ĠThe": 160,
      "an": 161,
      "im": 162,
      "or": 163,
      "on": 164,
      "Ġit": 165,
      "Ġth": 166,
      "ll": 167,
      "le": 168,
      "ĠH": 169,
      "Ġher": 170,
      "ot": 171,
      "et": 172,
      "ir": 173,
      "ĠShe": 174,
      "ĠHe": 175,
      "es": 176,
      "end": 177,
      "Ġin": 178,
      "ver": 179,
      "ut": 180,
      "ow": 181,
      "ĠThey": 182,
      "ck": 183,
      "Ġu": 184,
      "ld": 185,
      "ily": 186,
      "Ġy": 187,
      "oo": 188,
      "Ġsaid": 189,
      "ig": 190,
      "ex": 191,
      "Ġr": 192,
      "am": 193,
      "Ġbe": 194,
      "Ġst": 195,
      "Ġ\"": 196,
      "ce": 197,
      "ĠI": 198,
      "Ġshe": 199,
      "ke": 200,
      "pp": 201,
      "ith": 202,
      "Lily": 203,
      "ve": 204,
      "Ġwith": 205,
      "On": 206,
      "Ġon": 207,
      "Ġof": 208,
      "ri": 209,
      "ked": 210,
      "Ġhis": 211,
      "Ġyou": 212,
      "Ġpl": 213,
      "ft": 214,
      "Ġso": 215,
      "nt": 216,
      "very": 217,
      "ad": 218,
      "Ġday": 219,
      "Ġthat": 220,
      "Ġup": 221,
      "ĠLily": 222,
      "Ġplay": 223,
      "el": 224,
      "Ġhad": 225,
      "Ġthey": 226,
      "st": 227,
      "ext": 228,
      "Ġmom": 229,
      "Ġwe": 230,
      "Ġfor": 231,
      "Ġe": 232,
      "my": 233,
      "ould": 234,
      "un": 235,
      "ĠB": 236,
      "'s": 237,
      "oft": 238,
      "<|": 239,
      "|>": 240,
      "endoft": 241,
      "endoftext": 242,
      "The": 243,
      "Ġli": 244,
      "Ġhapp": 245,
      "ch": 246,
      "ent": 247,
      "itt": 248,
      "Ġwant": 249,
      "her": 250,
      "Ġsh": 251,
      "out": 252,
      "Ġdo": 253,
      "Ġnot": 254,
      "Ġvery": 255,
      "ome": 256,
      "ly": 257,
      "all": 258,
      "ound": 259,
      "ittle": 260,
      "ime": 261,
      "se": 262,
      "Ġwh": 263,
      "Ġk": 264,
      "Ġlittle": 265,
      "Ġtime": 266,
      "Ġthere": 267,
      "al": 268,
      "ht": 269,
      "Ġhappy": 270,
      "ĠčĊ": 271,
      "Ġbig": 272,
      "Ġre": 273,
      "ĠM": 274,
      "Ġis": 275,
      "ĠIt": 276,
      "Ġsm": 277,
      "Ġbut": 278,
      "ra": 279,
      "Ġsaw": 280,
      "riend": 281,
      "Ġfriend": 282,
      "Ġan": 283,
      "ry": 284,
      "Ġas": 285,
      "ack": 286,
      "Ġne": 287,
      ".\"": 288,
      "One": 289,
      "ide": 290,
      "ake": 291,
      "'t": 292,
      "ved": 293,
      "ug": 294,
      "Once": 295,
      "Ġlo": 296,
      "Ġloo": 297,
      "Ġwere": 298,
      "ore": 299,
      "!\"": 300,
      "ec": 301,
      "Ġhim": 302,
      "Ġbo": 303,
      "Ġtoo": 304,
      "ĠTim": 305,
      "Ġse": 306,
      "Ġgo": 307,
      "irl": 308,
      "Ġupon": 309,
      "Ġwanted": 310,
      "Ġj": 311,
      "ard": 312,
      "Ġgirl": 313,
      "ill": 314,
      "Ġare": 315,
      "Ġthem": 316,
      "Ġout": 317,
      "Ġat": 318,
      "Ġtheir": 319,
      "ind": 320,
      "Ġsp": 321,
      "way": 322,
      "fu": 323,
      "Ġdid": 324,
      "ur": 325,
      "Ġcould": 326,
      "ĠA": 327,
      "hen": 328,
      "Ġsmil": 329,
      "ain": 330,
      "Ġhave": 331,
      "art": 332,
      "ter": 333,
      "Ġwent": 334,
      "hed": 335,
      "rom": 336,
      "ic": 337,
      "round": 338,
      "Ġex": 339,
      "lp": 340,
      "Ġnam": 341,
      "Ġcan": 342,
      "ful": 343,
      "Ġfriends": 344,
      "ĠBen": 345,
      "hing": 346,
      "Ġhelp": 347,
      "Ġkn": 348,
      "Ġall": 349,
      "ĠJ": 350,
      "ood": 351,
      "ight": 352,
      "?\"": 353,
      "um": 354,
      "ark": 355,
      "one": 356,
      "Ġback": 357,
      "Ġfun": 358,
      "Ġcl": 359,
      "are": 360,
      "Ġsay": 361,
      "Ġle": 362,
      "You": 363,
      "Ġnamed": 364,
      "Ġno": 365,
      "ĠTom": 366,
      "Ġloved": 367,
      "op": 368,
      "elt": 369,
      "ĠTimmy": 370,
      "ĠOne": 371,
      "oug": 372,
      "Ġal": 373,
      "Ġsc": 374,
      "side": 375,
      "Ġfelt": 376,
      "Ġtoy": 377,
      "ick": 378,
      "Ġsmiled": 379,
      "Ġman": 380,
      "Ġfe": 381,
      "Ġasked": 382,
      "Ġsee": 383,
      "ame": 384,
      "Ġlooked": 385,
      "Ġlike": 386,
      "Ġaround": 387,
      "Ġsome": 388,
      "omet": 389,
      "ure": 390,
      "Ġro": 391,
      "Ġboy": 392,
      "Ġbr": 393,
      "get": 394,
      "Ġwould": 395,
      "Ġme": 396,
      "ĠW": 397,
      "Ġbir": 398,
      "ong": 399,
      "ice": 400,
      "Ġstart": 401,
      "ss": 402,
      "Ġsomet": 403,
      "Ġbird": 404,
      "ings": 405,
      "Ġfa": 406,
      "Ġwor": 407,
      "Ġag": 408,
      "ade": 409,
      "Ġmake": 410,
      "Ġwhat": 411,
      "Ġtre": 412,
      "dd": 413,
      "king": 414,
      "gether": 415,
      "own": 416,
      "ĠBut": 417,
      "Ġaway": 418,
      "Ġran": 419,
      "ag": 420,
      "Ġstarted": 421,
      ",\"": 422,
      "ĠYou": 423,
      "oud": 424,
      "Ġmade": 425,
      "ared": 426,
      "ie": 427,
      "Ġtogether": 428,
      "Ã¢": 429,
      "âĤ": 430,
      "âĤ¬": 431,
      "Ġco": 432,
      "Ġsays": 433,
      "Ġpark": 434,
      "Ġsomething": 435,
      "Ġcar": 436,
      "ther": 437,
      "ited": 438,
      "Ġsad": 439,
      "Ġput": 440,
      "Ġnew": 441,
      "Ġother": 442,
      "Ġpr": 443,
      "ble": 444,
      "Ġagain": 445,
      "Ġfrom": 446,
      "Ġexc": 447,
      "Ġhug": 448,
      "Ġmu": 449,
      "Ġhome": 450,
      "Ġla": 451,
      "ell": 452,
      "Ġwhen": 453,
      "Ġwho": 454,
      "ook": 455,
      "Ġgood": 456,
      "est": 457,
      "ried": 458,
      "Ġfound": 459,
      "if": 460,
      "ĠL": 461,
      "Ġthen": 462,
      "ach": 463,
      "ep": 464,
      "Ġdec": 465,
      "Ġfl": 466,
      "pped": 467,
      "Ġch": 468,
      "as": 469,
      "Ġplaying": 470,
      "ought": 471,
      "Ġwal": 472,
      "Ġget": 473,
      "qu": 474,
      "ally": 475,
      "hat": 476,
      "ĠE": 477,
      "Ġthings": 478,
      "Ġsw": 479,
      "uck": 480,
      "Ġgot": 481,
      "pl": 482,
      "ous": 483,
      "Ġliked": 484,
      "nn": 485,
      "Ġevery": 486,
      "Ġdecid": 487,
      "Ġexcited": 488,
      "ave": 489,
      "Ġdecided": 490,
      "ro": 491,
      "Ġcame": 492,
      "ax": 493,
      "Ġbl": 494,
      "Ġbec": 495,
      "Ġdown": 496,
      "Ġyour": 497,
      "Ġv": 498,
      "Ġfind": 499,
      "Ġcare": 500,
      "Ġdog": 501,
      "ust": 502,
      "Ġscared": 503,
      "Ġone": 504,
      "Ġfeel": 505,
      "Ġthan": 506,
      "ist": 507,
      "ouse": 508,
      "ny": 509,
      "Ġdad": 510,
      "ĠD": 511,
      "ap": 512,
      "ĠMom": 513,
      "Ġab": 514,
      "arn": 515,
      "ara": 516,
      "ways": 517,
      "ue": 518,
      "Ġdidn": 519,
      "nna": 520,
      "Ġgra": 521,
      "udd": 522,
      "Ġmy": 523,
      "Ġalways": 524,
      "ant": 525,
      "Ġtook": 526,
      "ers": 527,
      "They": 528,
      "Ġke": 529,
      "us": 530,
      "Ġmommy": 531,
      "ess": 532,
      "ĠF": 533,
      "fe": 534,
      "Ġabout": 535,
      "our": 536,
      "Ġlot": 537,
      "Ġtoys": 538,
      "Ġtree": 539,
      "Ġpo": 540,
      "Ġkne": 541,
      "Ġball": 542,
      "Ġlook": 543,
      "Ġwill": 544,
      "nder": 545,
      "Ġoutside": 546,
      "ite": 547,
      "Ġthought": 548,
      "eci": 549,
      "ened": 550,
      "Ġta": 551,
      "Ġlearn": 552,
      "bb": 553,
      "ise": 554,
      "ched": 555,
      "Ġmore": 556,
      "Ġpre": 557,
      "Ġknow": 558,
      "Ġho": 559,
      "Ġint": 560,
      "ĠSam": 561,
      "ged": 562,
      "ecial": 563,
      "Ġspecial": 564,
      "Ġold": 565,
      "Ġtake": 566,
      "Ġsor": 567,
      "ĠMax": 568,
      "Ġlaug": 569,
      "Ġpe": 570,
      "Ġknew": 571,
      "ive": 572,
      "Ġcat": 573,
      "ma": 574,
      "fter": 575,
      "Ġhow": 576,
      "Ġany": 577,
      "udden": 578,
      "au": 579,
      "Ġshow": 580,
      "Ġtr": 581,
      "Ġmuch": 582,
      "ia": 583,
      "uddenly": 584,
      "Ġsorry": 585,
      "and": 586,
      "Ġsl": 587,
      "ink": 588,
      "But": 589,
      "ish": 590,
      "Ġrun": 591,
      "Ġhouse": 592,
      "Ġtw": 593,
      "ven": 594,
      "Ġtold": 595,
      "Ġor": 596,
      "Ġsk": 597,
      "Ġop": 598,
      "Ġhand": 599,
      "Ġsun": 600,
      "Ġinside": 601,
      "Ġgave": 602,
      "Ġtried": 603,
      "Ġmo": 604,
      "Ġclo": 605,
      "Ġinto": 606,
      "Ġwater": 607,
      "Ġproud": 608,
      "ank": 609,
      "Ġcouldn": 610,
      "Ġover": 611,
      "Ġqu": 612,
      "ause": 613,
      "ate": 614,
      "Ġnever": 615,
      "ump": 616,
      "ty": 617,
      "other": 618,
      "ĠEvery": 619,
      "Ġen": 620,
      "Ġeat": 621,
      "Ġif": 622,
      "ace": 623,
      "Ġroom": 624,
      "Ġplayed": 625,
      "etter": 626,
      "Ġheard": 627,
      "ge": 628,
      "Ġexpl": 629,
      "Ġeach": 630,
      "Ġpick": 631,
      "Ġpret": 632,
      "ion": 633,
      "Ġthis": 634,
      "by": 635,
      "here": 636,
      "dy": 637,
      "ĠWe": 638,
      "Tom": 639,
      "ak": 640,
      "Ġbecause": 641,
      "ĠAnna": 642,
      "Ġhugged": 643,
      "Ġstr": 644,
      "Ġcom": 645,
      "Ġwat": 646,
      "Ġgre": 647,
      "Ġbox": 648,
      "Ġjust": 649,
      "Ġnice": 650,
      "ile": 651,
      "ĠSara": 652,
      "oth": 653,
      "Ġneed": 654,
      "iz": 655,
      "Mom": 656,
      "Ġjo": 657,
      "Ġoff": 658,
      "Ġmany": 659,
      "Ġlong": 660,
      "Ġbear": 661,
      "Ġsmall": 662,
      "Ġfo": 663,
      "Ġbu": 664,
      "ving": 665,
      "Ġsn": 666,
      "ough": 667,
      "Ġlearned": 668,
      "'m": 669,
      "ort": 670,
      "ine": 671,
      "Ġunt": 672,
      "uc": 673,
      "imal": 674,
      "Ġanimal": 675,
      "gry": 676,
      "Ġtry": 677,
      "Ġbetter": 678,
      "ild": 679,
      "sel": 680,
      "Ġuntil": 681,
      "sed": 682,
      "Ġlove": 683,
      "urt": 684,
      "ĠJack": 685,
      "Ġim": 686,
      "em": 687,
      "Ġdre": 688,
      "Ġend": 689,
      "Ġkind": 690,
      "Ġcall": 691,
      "Ġcle": 692,
      "ber": 693,
      "Ġflow": 694,
      "Ġad": 695,
      "Ġbest": 696,
      "urn": 697,
      "vent": 698,
      "ĠHer": 699,
      "He": 700,
      "aut": 701,
      "ĠAnd": 702,
      "ĠSo": 703,
      "Ġfi": 704,
      "ars": 705,
      "Ġpu": 706,
      "ady": 707,
      "Ġcareful": 708,
      "Ġsky": 709,
      "Ġfast": 710,
      "Ġgr": 711,
      "ves": 712,
      "Ġthanked": 713,
      "Ġeven": 714,
      "Ġbeaut": 715,
      "ĠC": 716,
      "Yes": 717,
      "Ġbra": 718,
      "urp": 719,
      "arden": 720,
      "ĠJo": 721,
      "Ġgarden": 722,
      "Ġdon": 723,
      "pt": 724,
      "lly": 725,
      "Ġche": 726,
      "ĠMia": 727,
      "Ġby": 728,
      "self": 729,
      "Th": 730,
      "Ġlots": 731,
      "ies": 732,
      "iny": 733,
      "Ġte": 734,
      "Ġgl": 735,
      "Ġloud": 736,
      "Ġlaughed": 737,
      "Ġfam": 738,
      "Ġjump": 739,
      "ase": 740,
      "Ġbeauti": 741,
      "lew": 742,
      "Ġlist": 743,
      "Ġstill": 744,
      "wn": 745,
      "Ġbeautiful": 746,
      "ĠFrom": 747,
      "rm": 748,
      "Ġhard": 749,
      "Ġway": 750,
      "Ġcome": 751,
      "Ġhurt": 752,
      "Ġwo": 753,
      "Ġanimals": 754,
      "It": 755,
      "ct": 756,
      "Ġra": 757,
      "ĠHis": 758,
      "ast": 759,
      "hes": 760,
      "Ġcol": 761,
      "Ġunder": 762,
      "ĠThen": 763,
      "Ġrem": 764,
      "Åĵ": 765,
      "ning": 766,
      "Ġsafe": 767,
      "Ġstay": 768,
      "ect": 769,
      "be": 770,
      "Ġlet": 771,
      "Ġlived": 772,
      "Ġboth": 773,
      "Tim": 774,
      "ool": 775,
      "Ġcu": 776,
      "ople": 777,
      "Ġimp": 778,
      "Ġbrave": 779,
      "Ġfamily": 780,
      "Ġits": 781,
      "kay": 782,
      "Ġbad": 783,
      "ob": 784,
      "Ġdan": 785,
      "Ġred": 786,
      "Ġstor": 787,
      "ished": 788,
      "Ġbook": 789,
      "ane": 790,
      "Ġtwo": 791,
      "When": 792,
      "Ġfin": 793,
      "ree": 794,
      "Ġpeople": 795,
      "ucy": 796,
      "Ġshould": 797,
      "urpr": 798,
      "ock": 799,
      "Ġcalled": 800,
      "ĠÃ¢": 801,
      "Ġflew": 802,
      "Ġfly": 803,
      "Ġpic": 804,
      "igh": 805,
      "Ġwalked": 806,
      "Ġsurpr": 807,
      "Ġangry": 808,
      "Ġsoon": 809,
      "Ġfore": 810,
      "ĠWhen": 811,
      "Ġdoll": 812,
      "led": 813,
      "Ġkept": 814,
      "Ġclean": 815,
      "Ġshare": 816,
      "fore": 817,
      "ised": 818,
      "Ġrock": 819,
      "Ġpretty": 820,
      "No": 821,
      "Ġdra": 822,
      "hn": 823,
      "Ġgoing": 824,
      "ip": 825,
      "Ġdoor": 826,
      "Let": 827,
      "Ġcon": 828,
      "ĠP": 829,
      "Ġkeep": 830,
      "Ġground": 831,
      "Ġshiny": 832,
      "Ġopened": 833,
      "dded": 834,
      "Ġadvent": 835,
      "ummy": 836,
      "Ġreal": 837,
      "Ġnow": 838,
      "Ġwind": 839,
      "Ġcry": 840,
      "illy": 841,
      "Ġexplore": 842,
      "age": 843,
      "Ġcre": 844,
      "Ġsto": 845,
      "Ben": 846,
      "Ġide": 847,
      "Ġbefore": 848,
      "Ġnoise": 849,
      "Ġfr": 850,
      "ture": 851,
      "Ġcolor": 852,
      "Ġturn": 853,
      "ary": 854,
      "les": 855,
      "so": 856,
      "Ġfar": 857,
      "âĤ¬â": 858,
      "Ġalso": 859,
      "Ġpicked": 860,
      "Ġfeeling": 861,
      "ied": 862,
      "Ġwhile": 863,
      "Ġey": 864,
      "Ġidea": 865,
      "imb": 866,
      "oon": 867,
      "oy": 868,
      "Ġclimb": 869,
      "Ġnext": 870,
      "ff": 871,
      "thing": 872,
      "Ġbed": 873,
      "Ġun": 874,
      "Ġwr": 875,
      "What": 876,
      "eet": 877,
      "Ġthr": 878,
      "Ġhas": 879,
      "Ġwalking": 880,
      "ĠLucy": 881,
      "Ġsmile": 882,
      "uch": 883,
      "Ġpicture": 884,
      "That": 885,
      "ger": 886,
      "iced": 887,
      "Ġtruck": 888,
      "Ġnodded": 889,
      "Ġadventure": 890,
      "th": 891,
      "Ġma": 892,
      "aybe": 893,
      "Ħ¢": 894,
      "âĤ¬âĦ¢": 895,
      "kes": 896,
      "Ġbeing": 897,
      "ember": 898,
      "ĠG": 899,
      "Thank": 900,
      "ious": 901,
      "joy": 902,
      "ac": 903,
      "Ġclos": 904,
      "Ġgive": 905,
      "Ġgi": 906,
      "ting": 907,
      "Ġfood": 908,
      "Ġtra": 909,
      "Ġlooking": 910,
      "Ġwait": 911,
      "Ġlisten": 912,
      "ĠDad": 913,
      "Ġstopped": 914,
      "Ġblue": 915,
      "ized": 916,
      "ught": 917,
      "Ġtow": 918,
      "Ġremember": 919,
      "Ġbre": 920,
      "Ġdif": 921,
      "Ġafter": 922,
      "Ġbro": 923,
      "Ġhands": 924,
      "ĠSuddenly": 925,
      "Ġnoticed": 926,
      "Ġthink": 927,
      "maz": 928,
      "Ġeyes": 929,
      "Ġamaz": 930,
      "Ġdel": 931,
      "Ġwalk": 932,
      "able": 933,
      "Ġquick": 934,
      "Ġown": 935,
      "Ġenjoy": 936,
      "Ġforest": 937,
      "She": 938,
      "Ġdis": 939,
      "Ġslide": 940,
      "Ġgreat": 941,
      "Ġever": 942,
      "Ġshowed": 943,
      "Ġrepl": 944,
      "Ġwatch": 945,
      "irst": 946,
      "Ġstrong": 947,
      "Ġflowers": 948,
      "Ġapp": 949,
      "bbit": 950,
      "ted": 951,
      "Ġeveryone": 952,
      "Ġimport": 953,
      "Ġwonder": 954,
      "Ġrain": 955,
      "Ġfish": 956,
      "Ġwork": 957,
      "llow": 958,
      "Ġvo": 959,
      "Ġac": 960,
      "Ġtal": 961,
      "Suddenly": 962,
      "Ġboat": 963,
      "Ġnear": 964,
      "Ġstick": 965,
      "Ġask": 966,
      "ĠSp": 967,
      "Ġokay": 968,
      "Ġhead": 969,
      "Ġimportant": 970,
      "Ġwhere": 971,
      "Ġshout": 972,
      "Ġmean": 973,
      "Ġrabbit": 974,
      "gan": 975,
      "Ġright": 976,
      "Ġplace": 977,
      "Ġus": 978,
      "bye": 979,
      "Ġsound": 980,
      "bbed": 981,
      "Ġquickly": 982,
      "Ġyell": 983,
      "Ġfollow": 984,
      "Ġreplied": 985,
      "Ġuse": 986,
      "Ġbright": 987,
      "lease": 988,
      "ĠBob": 989,
      "Ġwatched": 990,
      "Ġdress": 991,
      "Ġde": 992,
      "fere": 993,
      "ange": 994,
      "Ġbecame": 995,
      "day": 996,
      "ĠN": 997,
      "Ġdiffere": 998,
      "ath": 999,
      "Ġmor": 1000,
      "ered": 1001,
      "Ġar": 1002,
      "co": 1003,
      "Ġsure": 1004,
      "We": 1005,
      "ndma": 1006,
      "Ġcake": 1007,
      "Ġchild": 1008,
      "Ġhigh": 1009,
      "Ġcuri": 1010,
      "Ġbeen": 1011,
      "ĠR": 1012,
      "Ġmag": 1013,
      "ount": 1014,
      "Ġstore": 1015,
      "Ġour": 1016,
      "Ġwarm": 1017,
      "Ġye": 1018,
      "aught": 1019,
      "Ġsqu": 1020,
      "Ġhop": 1021,
      "Ġface": 1022,
      "Ġgoodbye": 1023,
      "Ġforg": 1024,
      "more": 1025,
      "Ġdifferent": 1026,
      "Ġanymore": 1027,
      "Ġcloser": 1028,
      "Ġdoes": 1029,
      "Anna": 1030,
      "Look": 1031,
      "So": 1032,
      "leep": 1033,
      "ng": 1034,
      "Ġcurious": 1035,
      "Ġcook": 1036,
      "Ġtell": 1037,
      "Ġam": 1038,
      "Ġvoice": 1039,
      "Ġnight": 1040,
      "itc": 1041,
      "ila": 1042,
      "imes": 1043,
      "Ġpain": 1044,
      "ĠSue": 1045,
      "Ġbel": 1046,
      "ĠSpot": 1047,
      "ired": 1048,
      "Ġbutter": 1049,
      "Ġopen": 1050,
      "ached": 1051,
      "Ġfav": 1052,
      "Ġpa": 1053,
      "Her": 1054,
      "Ġhelped": 1055,
      "Ġfirst": 1056,
      "Ġfell": 1057,
      "ull": 1058,
      "Ġcont": 1059,
      "Sara": 1060,
      "ĠMommy": 1061,
      "Ġhappened": 1062,
      "Ġz": 1063,
      "ĠTh": 1064,
      "Ġlea": 1065,
      "Ġthree": 1066,
      "Ġsees": 1067,
      "iss": 1068,
      "Can": 1069,
      "Ġkitc": 1070,
      "Ġkitchen": 1071,
      "Jo": 1072,
      "Ġpull": 1073,
      "Ġfire": 1074,
      "Ġflo": 1075,
      "Ġbus": 1076,
      "Ġbirds": 1077,
      "Ġblock": 1078,
      "Ġgrabbed": 1079,
      "Ġsweet": 1080,
      "After": 1081,
      "Ġstory": 1082,
      "Ġhere": 1083,
      "Ġonly": 1084,
      "Ġkid": 1085,
      "Ġbrother": 1086,
      "Ġdr": 1087,
      "Ġsand": 1088,
      "unny": 1089,
      "Ġglad": 1090,
      "Ġbit": 1091,
      "Ġru": 1092,
      "Ġgrass": 1093,
      "Ġrealized": 1094,
      "ppy": 1095,
      "ater": 1096,
      "Ġjumped": 1097,
      "orn": 1098,
      "Ġbeh": 1099,
      "Ġmon": 1100,
      "Ġper": 1101,
      "Ġdraw": 1102,
      "Ġstop": 1103,
      "Ġreached": 1104,
      "Ġcra": 1105,
      "ĠEveryone": 1106,
      "Ġsing": 1107,
      "ins": 1108,
      "Ġhaving": 1109,
      "Ġcr": 1110,
      "Ġmess": 1111,
      "zy": 1112,
      "ĠDo": 1113,
      "nts": 1114,
      "Ġrest": 1115,
      "uff": 1116,
      "Ġba": 1117,
      "Ġthrough": 1118,
      "Ġtri": 1119,
      "Ġprin": 1120,
      "Ġate": 1121,
      "ĠAs": 1122,
      "ĠJane": 1123,
      "Ġsoft": 1124,
      "Ġless": 1125,
      "Ġpap": 1126,
      "isy": 1127,
      "Ġready": 1128,
      "Ġyummy": 1129,
      "where": 1130,
      "Ġworld": 1131,
      "'re": 1132,
      "Ġhat": 1133,
      "akes": 1134,
      "Ġgame": 1135,
      "Ġfix": 1136,
      "Ġreally": 1137,
      "ĠLet": 1138,
      "Ġlady": 1139,
      "Ġshouted": 1140,
      "Ġpare": 1141,
      "Ġfavor": 1142,
      "Ġbegan": 1143,
      "Ġfavorite": 1144,
      "Ġhimself": 1145,
      "Ġunderst": 1146,
      "Ġcut": 1147,
      "Ġtired": 1148,
      "ĠSarah": 1149,
      "Ġmagic": 1150,
      "Ġduck": 1151,
      "fully": 1152,
      "Ġpretend": 1153,
      "ken": 1154,
      "Ġused": 1155,
      "Ġmum": 1156,
      "Ġtast": 1157,
      "ather": 1158,
      "Ġbutterf": 1159,
      "sh": 1160,
      "Ġthing": 1161,
      "Ġdone": 1162,
      "Ġworry": 1163,
      "Ġcoming": 1164,
      "ign": 1165,
      "Ġmaking": 1166,
      "illed": 1167,
      "Ġcatch": 1168,
      "ĠCan": 1169,
      "Ġkids": 1170,
      "Ġfunny": 1171,
      "Ġname": 1172,
      "Ġpus": 1173,
      "eddy": 1174,
      "Wow": 1175,
      "Ġseen": 1176,
      "As": 1177,
      "ster": 1178,
      "Ġpond": 1179,
      "Ġlooks": 1180,
      "Ġcars": 1181,
      "ĠThat": 1182,
      "Ġcried": 1183,
      "Ġfro": 1184,
      "Ġste": 1185,
      "Timmy": 1186,
      "Ġanother": 1187,
      "ient": 1188,
      "Ġtop": 1189,
      "air": 1190,
      "olly": 1191,
      "Ġwhy": 1192,
      "Mommy": 1193,
      "Ġprom": 1194,
      "Ġwaved": 1195,
      "Ġflower": 1196,
      "Ġbag": 1197,
      "Ġpart": 1198,
      "Ġbunny": 1199,
      "Ġhair": 1200,
      "Ġparents": 1201,
      "Ġtouch": 1202,
      "bo": 1203,
      "ards": 1204,
      "Don": 1205,
      "Ġpaper": 1206,
      "Ġdin": 1207,
      "Ġlight": 1208,
      "Ġgreen": 1209,
      "Ġdri": 1210,
      "Ġcool": 1211,
      "Ġdelic": 1212,
      "Ġdro": 1213,
      "Ġlesson": 1214,
      "Ġhole": 1215,
      "Ġswim": 1216,
      "ĠJohn": 1217,
      "hy": 1218,
      "ĠJoe": 1219,
      "Ġtrees": 1220,
      "iver": 1221,
      "Ġsurprise": 1222,
      "Ġyellow": 1223,
      "Ġremembered": 1224,
      "Ġbehind": 1225,
      "Ġfloor": 1226,
      "oney": 1227,
      "Ġhold": 1228,
      "ely": 1229,
      "ued": 1230,
      "Ġworked": 1231,
      "mer": 1232,
      "Ġfull": 1233,
      "Ġthank": 1234,
      "Ġrunning": 1235,
      "rel": 1236,
      "Ġhopped": 1237,
      "ation": 1238,
      "Ġsleep": 1239,
      "andy": 1240,
      "Ġwished": 1241,
      "ssed": 1242,
      "Ġspot": 1243,
      "Ġsmell": 1244,
      "Ġset": 1245,
      "ike": 1246,
      "Ġblocks": 1247,
      "Ġcold": 1248,
      "Ġlost": 1249,
      "Ġsat": 1250,
      "Ġhappily": 1251,
      "Ġread": 1252,
      "Ġwear": 1253,
      "Ġdoing": 1254,
      "Ġneeded": 1255,
      "Ġdream": 1256,
      "Ġdark": 1257,
      "Ġmouse": 1258,
      "Ġstre": 1259,
      "Ġbow": 1260,
      "aisy": 1261,
      "Ġwood": 1262,
      "Ġslow": 1263,
      "Ġlaugh": 1264,
      "ren": 1265,
      "Ġbutterfly": 1266,
      "Ġsho": 1267,
      "Ġcarefully": 1268,
      "Sam": 1269,
      "Ġtall": 1270,
      "Ġyears": 1271,
      "Ġleft": 1272,
      "Ġ-": 1273,
      "Ġlikes": 1274,
      "Ġcla": 1275,
      "Ġsurprised": 1276,
      "Ġhill": 1277,
      "Ġwindow": 1278,
      "Ġfrog": 1279,
      "Ġswing": 1280,
      "Ġenjoyed": 1281,
      "Ġheld": 1282,
      "Ġfinished": 1283,
      "uit": 1284,
      "Ġsnow": 1285,
      "Ġhear": 1286,
      "Ġmove": 1287,
      "ĠAfter": 1288,
      "Ġbuy": 1289,
      "ens": 1290,
      "\".": 1291,
      "Ġwrong": 1292,
      "Ġice": 1293,
      "Ġperf": 1294,
      "John": 1295,
      "ined": 1296,
      "Ġfollowed": 1297,
      "Ġair": 1298,
      "inally": 1299,
      "Ġarri": 1300,
      "Ġlion": 1301,
      "ul": 1302,
      "ĠBenny": 1303,
      "Ġfair": 1304,
      "Ġherself": 1305,
      "Ġhid": 1306,
      "ĠIn": 1307,
      "Ġanything": 1308,
      "Ġcontin": 1309,
      "Hell": 1310,
      "Hello": 1311,
      "Ġhun": 1312,
      "Ġclose": 1313,
      "Ġdir": 1314,
      "Ġchildren": 1315,
      "Ġbug": 1316,
      "Ġfriendly": 1317,
      "cess": 1318,
      "Ġcast": 1319,
      "Ġrel": 1320,
      "Ġtable": 1321,
      "asure": 1322,
      "Ġbuild": 1323,
      "ĠSally": 1324,
      "Ġarm": 1325,
      "Ġwonderful": 1326,
      "Ġforgot": 1327,
      "Ġmight": 1328,
      "Ġarrived": 1329,
      "ds": 1330,
      "ield": 1331,
      "Ġunderstand": 1332,
      "Ġdelicious": 1333,
      "Ġagre": 1334,
      "Ġel": 1335,
      "Ġtight": 1336,
      "Ġhot": 1337,
      "Ġplease": 1338,
      "Ġcolors": 1339,
      "Ġgrandma": 1340,
      "Ġsomeone": 1341,
      "ner": 1342,
      "Ġsong": 1343,
      "Ġcount": 1344,
      "Ġbooks": 1345,
      "Ġfilled": 1346,
      "Ġgone": 1347,
      "Ġcontinued": 1348,
      "Ġbroken": 1349,
      "Ġable": 1350,
      "Then": 1351,
      "Ġleaves": 1352,
      "Ġscre": 1353,
      "ĠNow": 1354,
      "Ġgent": 1355,
      "av": 1356,
      "Ġelse": 1357,
      "ĠThere": 1358,
      "Ġwants": 1359,
      "Ġcreat": 1360,
      "ask": 1361,
      "sp": 1362,
      "ĠLila": 1363,
      "Ġvis": 1364,
      "Ġwall": 1365,
      "lf": 1366,
      "From": 1367,
      "ĠEm": 1368,
      "ey": 1369,
      "Ġyes": 1370,
      "Ġbaby": 1371,
      "uffy": 1372,
      "Ġpink": 1373,
      "atter": 1374,
      "Ġbreak": 1375,
      "room": 1376,
      "man": 1377,
      "ich": 1378,
      "Ġpoin": 1379,
      "gon": 1380,
      "Ġamazing": 1381,
      "'ll": 1382,
      "ries": 1383,
      "Jack": 1384,
      "Ġmar": 1385,
      "Ġgetting": 1386,
      "ĠMaybe": 1387,
      "icy": 1388,
      "ĠDaisy": 1389,
      "Ġenough": 1390,
      "Ġpictures": 1391,
      "Ġfight": 1392,
      "OK": 1393,
      "Ġwhite": 1394,
      "oup": 1395,
      "Ġcomp": 1396,
      "Ġcastle": 1397,
      "Ġdinner": 1398,
      "Ġagreed": 1399,
      "row": 1400,
      "irrel": 1401,
      "Ġmus": 1402,
      "Ġmoment": 1403,
      "ross": 1404,
      "Ġmother": 1405,
      "Ġstayed": 1406,
      "Ġfall": 1407,
      "ash": 1408,
      "Ġmorning": 1409,
      "Ġcookies": 1410,
      "ced": 1411,
      "Ġscary": 1412,
      "Ġtrying": 1413,
      "Ġfinally": 1414,
      "Ġclimbed": 1415,
      "Ġfur": 1416,
      "Ġsometimes": 1417,
      "Ġsail": 1418,
      "Ġothers": 1419,
      "ĠK": 1420,
      "Ġwet": 1421,
      "Ġpi": 1422,
      "Ġju": 1423,
      "Ġsmiles": 1424,
      "Ġhungry": 1425,
      "ctor": 1426,
      "Ġsquirrel": 1427,
      "Ġtalk": 1428,
      "ence": 1429,
      "ons": 1430,
      "Ġclot": 1431,
      "Ġmet": 1432,
      "Ġclothes": 1433,
      "At": 1434,
      "Ġbrought": 1435,
      "ama": 1436,
      "ister": 1437,
      "red": 1438,
      "oom": 1439,
      "Ġturned": 1440,
      "ĠThis": 1441,
      "Ġroll": 1442,
      "Ġperfect": 1443,
      "Ġdaddy": 1444,
      "Ġmakes": 1445,
      "Ġcream": 1446,
      "ĠBilly": 1447,
      "This": 1448,
      "Ġfew": 1449,
      "Ġlistened": 1450,
      "oring": 1451,
      "Ġtail": 1452,
      "ee": 1453,
      "Ġeverything": 1454,
      "ance": 1455,
      "Ġwasn": 1456,
      "Ġspl": 1457,
      "Ġstrange": 1458,
      "rot": 1459,
      "Ġsear": 1460,
      "Ġballoon": 1461,
      "Ġbeach": 1462,
      "Ġpol": 1463,
      "Ġpuppy": 1464,
      "Ġjoy": 1465,
      "Ġsit": 1466,
      "ated": 1467,
      "ower": 1468,
      "Ġride": 1469,
      "der": 1470,
      "His": 1471,
      "zz": 1472,
      "Ġwaited": 1473,
      "Ġspark": 1474,
      "ĠJen": 1475,
      "Ġthre": 1476,
      "ĠWhat": 1477,
      "Ġmusic": 1478,
      "wl": 1479,
      "Ġamazed": 1480,
      "ever": 1481,
      "ĠGra": 1482,
      "Ġalone": 1483,
      "ĠTommy": 1484,
      "os": 1485,
      "amp": 1486,
      "pping": 1487,
      "Ġvisit": 1488,
      "elc": 1489,
      "Ġsilly": 1490,
      "Ġdanger": 1491,
      "ucky": 1492,
      "Ġteddy": 1493,
      "key": 1494,
      "ott": 1495,
      "Ġasks": 1496,
      "Ġpet": 1497,
      "Ġwoods": 1498,
      "ĠTo": 1499,
      "ope": 1500,
      "ix": 1501,
      "Ġdeep": 1502,
      "ang": 1503,
      "Ġhide": 1504,
      "eter": 1505,
      "Ġgrow": 1506,
      "Oh": 1507,
      "Ġleave": 1508,
      "Ġsister": 1509,
      "Ġside": 1510,
      "Ġpie": 1511,
      "ugg": 1512,
      "Ġcloud": 1513,
      "amed": 1514,
      "Ġflying": 1515,
      "med": 1516,
      "Ġlake": 1517,
      "Ġpulled": 1518,
      "Max": 1519,
      "Ġfox": 1520,
      "Ġpromised": 1521,
      "Ġpat": 1522,
      "gg": 1523,
      "ĠFl": 1524,
      "Ġdance": 1525,
      "Ġtowards": 1526,
      "eces": 1527,
      "Ġtreasure": 1528,
      "me": 1529,
      "Ġsec": 1530,
      "Ġfield": 1531,
      "ames": 1532,
      "ph": 1533,
      "Ġpieces": 1534,
      "ises": 1535,
      "Ġplan": 1536,
      "Maybe": 1537,
      "up": 1538,
      "Ġruns": 1539,
      "Ġshared": 1540,
      "Ġbigger": 1541,
      "cket": 1542,
      "ained": 1543,
      "Ġwon": 1544,
      "Ġthinks": 1545,
      "Ġem": 1546,
      "Ġland": 1547,
      "Ġmoral": 1548,
      "thy": 1549,
      "Ġtreat": 1550,
      "Okay": 1551,
      "Ġowner": 1552,
      "Ġliving": 1553,
      "Ġpen": 1554,
      "Ġele": 1555,
      "Ġbran": 1556,
      "Ġgrate": 1557,
      "ĠAll": 1558,
      "Ġbott": 1559,
      "Ġdolls": 1560,
      "Ġshar": 1561,
      "Ġcandy": 1562,
      "igg": 1563,
      "avy": 1564,
      "Ġparty": 1565,
      "Ġgu": 1566,
      "Ġeverywhere": 1567,
      "Ġgrateful": 1568,
      "cle": 1569,
      "set": 1570,
      "Ġcup": 1571,
      "Ġblank": 1572,
      "Ġbike": 1573,
      "Ġslowly": 1574,
      "outh": 1575,
      "Ġpaint": 1576,
      "Ġjob": 1577,
      "Ġsuch": 1578,
      "sw": 1579,
      "Ġbelie": 1580,
      "Ġworried": 1581,
      "Ġwelc": 1582,
      "Ġmouth": 1583,
      "ĠAmy": 1584,
      "Ġjoin": 1585,
      "Ġblanket": 1586,
      "Ġfaster": 1587,
      "Ġplant": 1588,
      "fort": 1589,
      "ret": 1590,
      "ually": 1591,
      "Ġansw": 1592,
      "Ġbroke": 1593,
      "Ġmoney": 1594,
      "unch": 1595,
      "ling": 1596,
      "iet": 1597,
      "Ġshap": 1598,
      "Ġgift": 1599,
      "Ġsmart": 1600,
      "Ġreach": 1601,
      "Ġmagical": 1602,
      "Ġsnack": 1603,
      "Ġbar": 1604,
      "Ġcolorful": 1605,
      "ire": 1606,
      "ident": 1607,
      "Ġhelping": 1608,
      "ased": 1609,
      "Ġprincess": 1610,
      "Ġdoctor": 1611,
      "Ġcho": 1612,
      "Ġrace": 1613,
      "Ġdragon": 1614,
      "Ġmix": 1615,
      "Ġacc": 1616,
      "Ġriver": 1617,
      "ĠJim": 1618,
      "Sure": 1619,
      "Ġnap": 1620,
      "Ġpro": 1621,
      "Ġsign": 1622,
      "less": 1623,
      "ol": 1624,
      "Ġquiet": 1625,
      "Ġcrying": 1626,
      "orm": 1627,
      "ipped": 1628,
      "Ġblack": 1629,
      "ze": 1630,
      "app": 1631,
      "Ġmost": 1632,
      "Ġdangerous": 1633,
      "Ġstepped": 1634,
      "Ġtrain": 1635,
      "Ġatt": 1636,
      "Ġbowl": 1637,
      "Ġfarmer": 1638,
      "Ġheavy": 1639,
      "Ġpot": 1640,
      "Ġmonster": 1641,
      "ere": 1642,
      "ored": 1643,
      "Ġje": 1644,
      "ming": 1645,
      "bble": 1646,
      "Ġtwins": 1647,
      "Ġwords": 1648,
      "vel": 1649,
      "Ġacross": 1650,
      "Ġdirty": 1651,
      "ear": 1652,
      "Ġdisapp": 1653,
      "Ġeating": 1654,
      "Ġsame": 1655,
      "Ġstuck": 1656,
      "ĠJill": 1657,
      "Ġclosed": 1658,
      "ĠMr": 1659,
      "Ġfruit": 1660,
      "Ġthrew": 1661,
      "Ġmust": 1662,
      "Ġtower": 1663,
      "Ġwouldn": 1664,
      "Ġbuck": 1665,
      "cked": 1666,
      "ĠMolly": 1667,
      "Ġspr": 1668,
      "Ġhig": 1669,
      "Ġwin": 1670,
      "Ġaccident": 1671,
      "Ġcray": 1672,
      "Ġmonkey": 1673,
      "Ġcarrot": 1674,
      "Why": 1675,
      "ord": 1676,
      "Ġbath": 1677,
      "Ġheal": 1678,
      "Ġfeels": 1679,
      "Ġteac": 1680,
      "iting": 1681,
      "Ġbite": 1682,
      "eared": 1683,
      "Hi": 1684,
      "asket": 1685,
      "umb": 1686,
      "Ġpushed": 1687,
      "Ġbutt": 1688,
      "Ġtown": 1689,
      "chool": 1690,
      "Ġpast": 1691,
      "Ġbasket": 1692,
      "Ġheart": 1693,
      "Ġhoped": 1694,
      "br": 1695,
      "Ġwithout": 1696,
      "Ġhit": 1697,
      "Ġcoll": 1698,
      "Ġclapped": 1699,
      "Ġpack": 1700,
      "Ġbelieve": 1701,
      "Ġstand": 1702,
      "Ġpers": 1703,
      "Ġforget": 1704,
      "Mia": 1705,
      "Ġschool": 1706,
      "Ġfairy": 1707,
      "Ġcheered": 1708,
      "phant": 1709,
      "Ġbee": 1710,
      "Ġsmo": 1711,
      "ĠFluffy": 1712,
      "Ġfence": 1713,
      "Ġlon": 1714,
      "de": 1715,
      "orrow": 1716,
      "Ġcour": 1717,
      "Ġyard": 1718,
      "Ġbrown": 1719,
      "Ġchair": 1720,
      "ĠDaddy": 1721,
      "Ġdrove": 1722,
      "ract": 1723,
      "Ġadventures": 1724,
      "Ġnoises": 1725,
      "ier": 1726,
      "ventually": 1727,
      "Ġhigher": 1728,
      "Ġlonely": 1729,
      "ass": 1730,
      "Ġca": 1731,
      "Ġelephant": 1732,
      "Ġteacher": 1733,
      "Ġtoday": 1734,
      "ors": 1735,
      "ney": 1736,
      "Ġpocket": 1737,
      "Ġupset": 1738,
      "cy": 1739,
      "Ġturns": 1740,
      "Ġswings": 1741,
      "Ġgentle": 1742,
      "Ġlonger": 1743,
      "Finally": 1744,
      "ek": 1745,
      "Ġwings": 1746,
      "Ġwelcome": 1747,
      "ho": 1748,
      "Ġgames": 1749,
      "Ġcourse": 1750,
      "Ġben": 1751,
      "Ġexplained": 1752,
      "Ġfree": 1753,
      "Ġneck": 1754,
      "Ġsuddenly": 1755,
      "Ġleg": 1756,
      "Ġjour": 1757,
      "Ġsecret": 1758,
      "Lila": 1759,
      "ead": 1760,
      "Ġstar": 1761,
      "Ġve": 1762,
      "issed": 1763,
      "ountain": 1764,
      "Ġwhe": 1765,
      "Ġdry": 1766,
      "Ġcorn": 1767,
      "Ġsoup": 1768,
      "Ġbring": 1769,
      "Ġshop": 1770,
      "Ġinst": 1771,
      "Ġhappen": 1772,
      "Ġneigh": 1773,
      "Ġdropped": 1774,
      "Ġplac": 1775,
      "Ġhugs": 1776,
      "yard": 1777,
      "Ġtrou": 1778,
      "Ġpiece": 1779,
      "weet": 1780,
      "Ġmin": 1781,
      "Ġthrow": 1782,
      "Ġneighb": 1783,
      "Ġswam": 1784,
      "ible": 1785,
      "Ġstories": 1786,
      "Ġsang": 1787,
      "Ġbackyard": 1788,
      "itting": 1789,
      "ush": 1790,
      "ĠEmma": 1791,
      "pper": 1792,
      "ment": 1793,
      "Ġwish": 1794,
      "Ġrocks": 1795,
      "Ġbucket": 1796,
      "Ġwell": 1797,
      "Ġlate": 1798,
      "Ġnaught": 1799,
      "Ġapple": 1800,
      "Ġbelong": 1801,
      "Ġowl": 1802,
      "Ġph": 1803,
      "ches": 1804,
      "Ġnaughty": 1805,
      "ces": 1806,
      "Ġtaking": 1807,
      "Ġorange": 1808,
      "Ġalong": 1809,
      "Ġlunch": 1810,
      "ocked": 1811,
      "Ġdrink": 1812,
      "fused": 1813,
      "ung": 1814,
      "Ġjar": 1815,
      "Ġexploring": 1816,
      "Ġexp": 1817,
      "Ġcou": 1818,
      "Ġsea": 1819,
      "Ġes": 1820,
      "Ġyoung": 1821,
      "bow": 1822,
      "Ġdist": 1823,
      "Ġseemed": 1824,
      "Ġsinging": 1825,
      "oun": 1826,
      "Ġshook": 1827,
      "Ġmat": 1828,
      "Ġcaught": 1829,
      "Ġmoved": 1830,
      "Ġwar": 1831,
      "Ġnearby": 1832,
      "Ġpig": 1833,
      "Ġwise": 1834,
      "Ġkey": 1835,
      "Ġshoes": 1836,
      "Ġstars": 1837,
      "Ġtiny": 1838,
      "Ġthough": 1839,
      "Ġwoke": 1840,
      "Ġtom": 1841,
      "Ġdes": 1842,
      "Ġmiss": 1843,
      "Ġaf": 1844,
      "llo": 1845,
      "ĠGrandma": 1846,
      "Ġmail": 1847,
      "ail": 1848,
      "ions": 1849,
      "vered": 1850,
      "Do": 1851,
      "cer": 1852,
      "Ġsick": 1853,
      "col": 1854,
      "ĠThank": 1855,
      "Ġbench": 1856,
      "let": 1857,
      "Ġcarry": 1858,
      "ape": 1859,
      "Ġrelie": 1860,
      "Ġresp": 1861,
      "Ġsu": 1862,
      "Ġnest": 1863,
      "Ġshapes": 1864,
      "cing": 1865,
      "ittens": 1866,
      "sy": 1867,
      "Ġrainbow": 1868,
      "Ġarms": 1869,
      "idge": 1870,
      "Ġbranch": 1871,
      "Ġkite": 1872,
      "Ġmine": 1873,
      "Ġdriver": 1874,
      "Ġjuice": 1875,
      "Ġtakes": 1876,
      "Ġbusy": 1877,
      "Ġob": 1878,
      "aughter": 1879,
      "raid": 1880,
      "Ġafraid": 1881,
      "ĠMary": 1882,
      "Ġwondered": 1883,
      "itch": 1884,
      "Ġmad": 1885,
      "ward": 1886,
      "Ġcir": 1887,
      "Ġsitting": 1888,
      "ining": 1889,
      "Ġcow": 1890,
      "Ġmark": 1891,
      "ese": 1892,
      "Ġmil": 1893,
      "cks": 1894,
      "Ġstreet": 1895,
      "And": 1896,
      "Ġcomes": 1897,
      "Ġinv": 1898,
      "Ġaccidentally": 1899,
      "Ġround": 1900,
      "irt": 1901,
      "Ġnose": 1902,
      "Ġdisco": 1903,
      "Ġking": 1904,
      "Ġforever": 1905,
      "Ġ3": 1906,
      "Later": 1907,
      "Ġyear": 1908,
      "Ġfarm": 1909,
      "Ġwhist": 1910,
      "Ġband": 1911,
      "Ġpeace": 1912,
      "Ġdaughter": 1913,
      "Ġlift": 1914,
      "Ġsounds": 1915,
      "sting": 1916,
      "Ġstu": 1917,
      "ĠFinally": 1918,
      "to": 1919,
      "Ġegg": 1920,
      "Ġcute": 1921,
      "bby": 1922,
      "thday": 1923,
      "ball": 1924,
      "Ġexciting": 1925,
      "adow": 1926,
      "Ġcozy": 1927,
      "Ġfit": 1928,
      "ity": 1929,
      "Ġletter": 1930,
      "Ġpurp": 1931,
      "ĠInside": 1932,
      "Ġcoat": 1933,
      "Ġwra": 1934,
      "Ġboun": 1935,
      "Ġpower": 1936,
      "ours": 1937,
      "Ġrelieved": 1938,
      "Ġhello": 1939,
      "Ġnothing": 1940,
      "Ġpatient": 1941,
      "Ġintere": 1942,
      "Ġholding": 1943,
      "Ġlaughing": 1944,
      "Ġhuge": 1945,
      "Ġjourney": 1946,
      "Of": 1947,
      "Ġmist": 1948,
      "ĠTweet": 1949,
      "shine": 1950,
      "Ġimag": 1951,
      "Ġspoon": 1952,
      "ĠSoon": 1953,
      "Ġswimming": 1954,
      "Ġgigg": 1955,
      "itten": 1956,
      "Ġmilk": 1957,
      "Ġdays": 1958,
      "Ġsunshine": 1959,
      "Ġlife": 1960,
      "Ġcomfort": 1961,
      "Ġfing": 1962,
      "Ġpurple": 1963,
      "gged": 1964,
      "uched": 1965,
      "Ġtouched": 1966,
      "Ġlater": 1967,
      "ĠCome": 1968,
      "ĠMama": 1969,
      "Ġinstead": 1970,
      "Ġact": 1971,
      "Ġbirthday": 1972,
      "eth": 1973,
      "ĠO": 1974,
      "Ġroad": 1975,
      "Ġcheese": 1976,
      "Ġinc": 1977,
      "fish": 1978,
      "ts": 1979,
      "Ġear": 1980,
      "Ġsunny": 1981,
      "unt": 1982,
      "alm": 1983,
      "Ġret": 1984,
      "Ġgives": 1985,
      "Ġsearched": 1986,
      "ped": 1987,
      "Ġbought": 1988,
      "Ġfan": 1989,
      "Ġbread": 1990,
      "Ġpointed": 1991,
      "ness": 1992,
      "Ġanyone": 1993,
      "Ġonto": 1994,
      "Ġbottle": 1995,
      "board": 1996,
      "Ġpres": 1997,
      "Ġducks": 1998,
      "ize": 1999,
      "Ġstorm": 2000,
      "sc": 2001,
      "ose": 2002,
      "Ġhope": 2003,
      "Ġreturn": 2004,
      "Ġlucky": 2005,
      "Ġplane": 2006,
      "ĠSammy": 2007,
      "Ġtasty": 2008,
      "Ġcave": 2009,
      "Ġcreature": 2010,
      "Ġwatching": 2011,
      "blem": 2012,
      "Ġgrab": 2013,
      "Ġpudd": 2014,
      "Hey": 2015,
      "Ġproblem": 2016,
      "Ġce": 2017,
      "Ġsmiling": 2018,
      "ndp": 2019,
      "Ġrope": 2020,
      "Ġkick": 2021,
      "Ġspo": 2022,
      "Ġcrayons": 2023,
      "Ġshell": 2024,
      "Ġeas": 2025,
      "Ġsharp": 2026,
      "aur": 2027,
      "Ġspid": 2028,
      "els": 2029,
      "Ġmeet": 2030,
      "Ġpromise": 2031,
      "Ġsnowman": 2032,
      "Ġperson": 2033,
      "Ġhoney": 2034,
      "Ġdanced": 2035,
      "ond": 2036,
      "Ġpuzz": 2037,
      "epend": 2038,
      "Ġinteresting": 2039,
      "ten": 2040,
      "Ġtalked": 2041,
      "Ġsandw": 2042,
      "Ġbutton": 2043,
      "Ġquest": 2044,
      "Ġcollect": 2045,
      "og": 2046,
      "ove": 2047,
      "Ġzoom": 2048,
      "Ġtrouble": 2049,
      "Ġwide": 2050,
      "Ġcard": 2051,
      "Ġkiss": 2052,
      "ometimes": 2053,
      "itty": 2054,
      "Bob": 2055,
      "Ġsmelled": 2056,
      "Ġspin": 2057,
      "Ġpresent": 2058,
      "Ġent": 2059,
      "Ġap": 2060,
      "Ġlovely": 2061,
      "Ġapples": 2062,
      "Ġpract": 2063,
      "Ġadm": 2064,
      "Ġwrite": 2065,
      "Ġbush": 2066,
      "Ġgiant": 2067,
      "ĠJimmy": 2068,
      "Ġhealthy": 2069,
      "ont": 2070,
      "Ġclouds": 2071,
      "Ġpill": 2072,
      "Ġshining": 2073,
      "Ġgather": 2074,
      "izz": 2075,
      "Ġpar": 2076,
      "umber": 2077,
      "Ġrolled": 2078,
      "isa": 2079,
      "Ġcheer": 2080,
      "Tommy": 2081,
      "Ġplaces": 2082,
      "Good": 2083,
      "Ġfront": 2084,
      "ndpa": 2085,
      "Ġputs": 2086,
      "owed": 2087,
      "Ġwhich": 2088,
      "Ġloves": 2089,
      "Ġsaf": 2090,
      "Ġvill": 2091,
      "Ġsur": 2092,
      "Ġpath": 2093,
      "ĠMittens": 2094,
      "lla": 2095,
      "Ġspotted": 2096,
      "ub": 2097,
      "Ġtun": 2098,
      "Ġhon": 2099,
      "Ġworm": 2100,
      "Ġimpre": 2101,
      "Ġclever": 2102,
      "Ġshr": 2103,
      "Ġorgan": 2104,
      "Ġmyster": 2105,
      "bar": 2106,
      "Ġlay": 2107,
      "Ġmatter": 2108,
      "Ġfeather": 2109,
      "Ġtasted": 2110,
      "Ġwild": 2111,
      "Ġdi": 2112,
      "Ġeag": 2113,
      "Ġzoo": 2114,
      "Ġmed": 2115,
      "Ġtrip": 2116,
      "Ġprot": 2117,
      "Ġrespect": 2118,
      "een": 2119,
      "Ġbark": 2120,
      "Ġhor": 2121,
      "Ġcouch": 2122,
      "Ġsuc": 2123,
      "Ġthin": 2124,
      "Ġpop": 2125,
      "Ġwhole": 2126,
      "Lucy": 2127,
      "ching": 2128,
      "Ġfoot": 2129,
      "Ġprotect": 2130,
      "erly": 2131,
      "Ġasleep": 2132,
      "Ġpile": 2133,
      "Ġspent": 2134,
      "ular": 2135,
      "St": 2136,
      "Ġbuilding": 2137,
      "Ġdirt": 2138,
      "cean": 2139,
      "Ġocean": 2140,
      "Ġlad": 2141,
      "Ġknee": 2142,
      "la": 2143,
      "Ġgoes": 2144,
      "Ġcoin": 2145,
      "Ġspider": 2146,
      "Ġwearing": 2147,
      "barra": 2148,
      "Ġmountain": 2149,
      "Ġpretended": 2150,
      "Ġembarra": 2151,
      "eb": 2152,
      "nic": 2153,
      "Every": 2154,
      "Ġslid": 2155,
      "Ġpicnic": 2156,
      "Ġscreamed": 2157,
      "Ġfaces": 2158,
      "Ġteach": 2159,
      "Ġphone": 2160,
      "hile": 2161,
      "Ġsack": 2162,
      "Ġsnake": 2163,
      "Ġanswer": 2164,
      "ĠWith": 2165,
      "Ġseat": 2166,
      "Ġconfused": 2167,
      "Ġappeared": 2168,
      "Come": 2169,
      "oose": 2170,
      "Jim": 2171,
      "Ġtalking": 2172,
      "Ġgently": 2173,
      "ife": 2174,
      "Ġsal": 2175,
      "Ġfurry": 2176,
      "Ġhelpful": 2177,
      "Ġmud": 2178,
      "Ġdrive": 2179,
      "Ġmind": 2180,
      "lex": 2181,
      "Ġpan": 2182,
      "Ġpass": 2183,
      "Ġladder": 2184,
      "Ġsupp": 2185,
      "Ġoven": 2186,
      "Ġign": 2187,
      "Ġcart": 2188,
      "Ġpush": 2189,
      "In": 2190,
      "ale": 2191,
      "Ġser": 2192,
      "Ġrec": 2193,
      "Ġwhenever": 2194,
      "arge": 2195,
      "Ġval": 2196,
      "Ġcorner": 2197,
      "unk": 2198,
      "Ġwom": 2199,
      "Ġchocol": 2200,
      "Ġcalm": 2201,
      "Ġsplas": 2202,
      "Ġwoman": 2203,
      "Ġban": 2204,
      "ĠHow": 2205,
      "ÅĵI": 2206,
      "Ġneighbor": 2207,
      "Just": 2208,
      "Ġlast": 2209,
      "ĠGo": 2210,
      "Ġtool": 2211,
      "Ġmach": 2212,
      "ĠSometimes": 2213,
      "Ġshirt": 2214,
      "Molly": 2215,
      "Ġblew": 2216,
      "Ġfixed": 2217,
      "read": 2218,
      "Ġring": 2219,
      "Ġfighting": 2220,
      "Ġfinish": 2221,
      "Ġwaiting": 2222,
      "Ġwave": 2223,
      "Ġspicy": 2224,
      "Ġforgive": 2225,
      "Ġtid": 2226,
      "ert": 2227,
      "bbles": 2228,
      "ĠAl": 2229,
      "Ġfeet": 2230,
      "Ġminut": 2231,
      "Ġspread": 2232,
      "Ġdelight": 2233,
      "Ġash": 2234,
      "Ġtaste": 2235,
      "Ġeventually": 2236,
      "Ġteeth": 2237,
      "Ġlive": 2238,
      "Ġembarrassed": 2239,
      "Ġpour": 2240,
      "Ġhorse": 2241,
      "Ġtomorrow": 2242,
      "Soon": 2243,
      "Ġremind": 2244,
      "Ġbell": 2245,
      "Mum": 2246,
      "Ġscar": 2247,
      "Ġcookie": 2248,
      "Ġsmooth": 2249,
      "Ġrocket": 2250,
      "ones": 2251,
      "Ġant": 2252,
      "Ġshy": 2253,
      "Ġcloth": 2254,
      "Ġfold": 2255,
      "ĠEmily": 2256,
      "Ġchocolate": 2257,
      "mo": 2258,
      "Ġtries": 2259,
      "ĠCh": 2260,
      "Ġcolour": 2261,
      "Ġstep": 2262,
      "oph": 2263,
      "old": 2264,
      "Ġlarge": 2265,
      "Ġtea": 2266,
      "Ġsongs": 2267,
      "Ġneckl": 2268,
      "Ġhiding": 2269,
      "Ġbanan": 2270,
      "ĠJenny": 2271,
      "Ġkitten": 2272,
      "Ġpaw": 2273,
      "Ġspray": 2274,
      "Ġspe": 2275,
      "urse": 2276,
      "Ġrob": 2277,
      "Ġhum": 2278,
      "Ġpool": 2279,
      "Ġple": 2280,
      "Ġemp": 2281,
      "Ġwash": 2282,
      "Ġcann": 2283,
      "Ġpizz": 2284,
      "Ġempty": 2285,
      "nny": 2286,
      "ungle": 2287,
      "Ġvillage": 2288,
      "Ġcreative": 2289,
      "lebr": 2290,
      "Ġjungle": 2291,
      "Ġgrew": 2292,
      "Ġbugs": 2293,
      "Ġtightly": 2294,
      "Ġtidy": 2295,
      "als": 2296,
      "getable": 2297,
      "Ġcannot": 2298,
      "ĠSt": 2299,
      "dge": 2300,
      "Ġcoo": 2301,
      "Ġknocked": 2302,
      "Ġvegetable": 2303,
      "Ġwhistle": 2304,
      "Ġsol": 2305,
      "Ġrep": 2306,
      "Ġcelebr": 2307,
      "umpy": 2308,
      "ato": 2309,
      "hnny": 2310,
      "ĠTV": 2311,
      "den": 2312,
      "Ġchick": 2313,
      "My": 2314,
      "Ġrude": 2315,
      "Ġwore": 2316,
      "Ġtrust": 2317,
      "Ġhar": 2318,
      "ĠSome": 2319,
      "airs": 2320,
      "Ġbarked": 2321,
      "Ġrobot": 2322,
      "Ġwip": 2323,
      "Ġpeaceful": 2324,
      "Now": 2325,
      "Ġsparkly": 2326,
      "Ġpuddle": 2327,
      "Ġnecklace": 2328,
      "ground": 2329,
      "Ġhears": 2330,
      "Ġchased": 2331,
      "ighed": 2332,
      "ĠEverywhere": 2333,
      "Ġpizza": 2334,
      "ĠPlease": 2335,
      "Ġstret": 2336,
      "Ġsel": 2337,
      "Ġstir": 2338,
      "ĠJust": 2339,
      "Ġmeant": 2340,
      "ĠLe": 2341,
      "ned": 2342,
      "Ġbal": 2343,
      "Ġmoon": 2344,
      "Ġmaybe": 2345,
      "Ġgun": 2346,
      "Ġstra": 2347,
      "Ġpuzzle": 2348,
      "Ġhidden": 2349,
      "Ġpin": 2350,
      "Ġnet": 2351,
      "Ġsave": 2352,
      "ian": 2353,
      "Ġtreats": 2354,
      "Ġgen": 2355,
      "Ġmeadow": 2356,
      "Ġcarrots": 2357,
      "ĠOn": 2358,
      "inted": 2359,
      "lower": 2360,
      "era": 2361,
      "box": 2362,
      "Ġmot": 2363,
      "Ġsticks": 2364,
      "Ġsnacks": 2365,
      "dle": 2366,
      "Ġcarried": 2367,
      "Ġmissed": 2368,
      "ĠTheir": 2369,
      "gly": 2370,
      "ustr": 2371,
      "Ġforward": 2372,
      "ult": 2373,
      "Ġseed": 2374,
      "Ġflut": 2375,
      "Ġtells": 2376,
      "Ġsplash": 2377,
      "Ġav": 2378,
      "Ġgroup": 2379,
      "Ġsour": 2380,
      "Ġbat": 2381,
      "Ġcrab": 2382,
      "Ġprince": 2383,
      "Ġmachine": 2384,
      "Ġshelf": 2385,
      "Ġber": 2386,
      "ĠJake": 2387,
      "Ġclear": 2388,
      "Ġugly": 2389,
      "Ġstring": 2390,
      "Ġselfish": 2391,
      "Ġjumping": 2392,
      "Ġdisappo": 2393,
      "Ġ'": 2394,
      "ird": 2395,
      "Dad": 2396,
      "ĠTeddy": 2397,
      "aul": 2398,
      "Ġgold": 2399,
      "iger": 2400,
      "Ġlem": 2401,
      "elly": 2402,
      "kin": 2403,
      "Ġfrustr": 2404,
      "Ġleaf": 2405,
      "Ġburn": 2406,
      "Ġknowing": 2407,
      "Ġgray": 2408,
      "Ġstood": 2409,
      "ĠLisa": 2410,
      "ying": 2411,
      "Ġroar": 2412,
      "Ġyelled": 2413,
      "Ġpolice": 2414,
      "Ġlanded": 2415,
      "Ġlegs": 2416,
      "Please": 2417,
      "itter": 2418,
      "Ġsharing": 2419,
      "most": 2420,
      "Ġhonest": 2421,
      "Ġpir": 2422,
      "Ġcirc": 2423,
      "ator": 2424,
      "Ġstone": 2425,
      "eterm": 2426,
      "hin": 2427,
      "Ġwhis": 2428,
      "Ġblow": 2429,
      "Ġdeterm": 2430,
      "ĠWhy": 2431,
      "ĠMum": 2432,
      "ĠTogether": 2433,
      "Ġstanding": 2434,
      "Ġplate": 2435,
      "Ġdrew": 2436,
      "Ġbreath": 2437,
      "Ġalmost": 2438,
      "Ġnods": 2439,
      "vous": 2440,
      "Ġgar": 2441,
      "Ġfancy": 2442,
      "Ġfrustrated": 2443,
      "Ġnumber": 2444,
      "Ġseek": 2445,
      "Stop": 2446,
      "Ġdisappointed": 2447,
      "Ġtest": 2448,
      "Ġsleepy": 2449,
      "To": 2450,
      "orry": 2451,
      "iff": 2452,
      "Ġthese": 2453,
      "ital": 2454,
      "Mama": 2455,
      "aking": 2456,
      "There": 2457,
      "uce": 2458,
      "Ġfear": 2459,
      "Ġscream": 2460,
      "Ġpowerful": 2461,
      "Ġmysterious": 2462,
      "Ġfeed": 2463,
      "Ġpillow": 2464,
      "Be": 2465,
      "ser": 2466,
      "Ġhours": 2467,
      "Ġgener": 2468,
      "Ġpolite": 2469,
      "ĠBr": 2470,
      "ĠAnn": 2471,
      "Ġhosp": 2472,
      "Ġfil": 2473,
      "Ġcro": 2474,
      "pack": 2475,
      "Ġhospital": 2476,
      "Ġline": 2477,
      "Ġgas": 2478,
      "Ġjew": 2479,
      "Ġmedic": 2480,
      "Ġashamed": 2481,
      "ffe": 2482,
      "Ġplants": 2483,
      "Ġcries": 2484,
      "Ġdecor": 2485,
      "ĠEven": 2486,
      "ecially": 2487,
      "Ġner": 2488,
      "ote": 2489,
      "ets": 2490,
      "Ġreg": 2491,
      "ĠPeter": 2492,
      "Ġreturned": 2493,
      "issors": 2494,
      "ual": 2495,
      "izzy": 2496,
      "Ġunderstood": 2497,
      "Ġsheep": 2498,
      "Ġscissors": 2499,
      "Ġmedicine": 2500,
      "Ġnervous": 2501,
      "Ġwhisp": 2502,
      "ĠDon": 2503,
      "Ġtwirl": 2504,
      "ensive": 2505,
      "Ġexpensive": 2506,
      "Ġspoil": 2507,
      "pecially": 2508,
      "ony": 2509,
      "Ġshore": 2510,
      "Ġpacked": 2511,
      "Ġespecially": 2512,
      "sist": 2513,
      "Ġscarf": 2514,
      "osaur": 2515,
      "Ġbored": 2516,
      "ĠBe": 2517,
      "Ġpay": 2518,
      "Ġdancing": 2519,
      "Ġpassed": 2520,
      "Ġsandwich": 2521,
      "Ġvegetables": 2522,
      "Ġnut": 2523,
      "Ġtaught": 2524,
      "Ġvan": 2525,
      "Ġgarage": 2526,
      "Ġsaved": 2527,
      "Ġpoor": 2528,
      "Ġgrumpy": 2529,
      "usie": 2530,
      "Ġcloset": 2531,
      "light": 2532,
      "ina": 2533,
      "Ġpri": 2534,
      "Ġbecome": 2535,
      "Ġhel": 2536,
      "Ġmummy": 2537,
      "Ġruined": 2538,
      "Ġscr": 2539,
      "Ġtaken": 2540,
      "Ġfinger": 2541,
      "Ġgate": 2542,
      "'d": 2543,
      "Ġdrum": 2544,
      "Ġcomfortable": 2545,
      "Ġfill": 2546,
      "Ġmessy": 2547,
      "iddle": 2548,
      "Ġcand": 2549,
      "ĠRex": 2550,
      "Ġdinosaur": 2551,
      "Ġsold": 2552,
      "Ġbedroom": 2553,
      "Ġeasy": 2554,
      "Ġones": 2555,
      "Ġexam": 2556,
      "Ġgenerous": 2557,
      "oop": 2558,
      "Ġpleased": 2559,
      "Ġasking": 2560,
      "ano": 2561,
      "Ġclass": 2562,
      "Ġsuccess": 2563,
      "ym": 2564,
      "Ġwis": 2565,
      "Ġyourself": 2566,
      "Jane": 2567,
      "imp": 2568,
      "Ġworking": 2569,
      "Ġdetermined": 2570,
      "Ġweek": 2571,
      "Ġship": 2572,
      "Ġpray": 2573,
      "Ġglue": 2574,
      "Ġfig": 2575,
      "Ġhopping": 2576,
      "Ġgiggled": 2577,
      "Ġsailed": 2578,
      "Ġboring": 2579,
      "Ġstuff": 2580,
      "Ġballs": 2581,
      "ĠLeo": 2582,
      "Ġmotor": 2583,
      "Ġcri": 2584,
      "Ġwagged": 2585,
      "Ġvase": 2586,
      "Ġglass": 2587,
      "Jimmy": 2588,
      "Ġkissed": 2589,
      "Where": 2590,
      "Ġhur": 2591,
      "Ġmov": 2592,
      "ĠKitty": 2593,
      "Ġmistake": 2594,
      "Ġoften": 2595,
      "ĠOK": 2596,
      "Ġsighed": 2597,
      "ates": 2598,
      "Ġdest": 2599,
      "Ġplayground": 2600,
      "Ġexcite": 2601,
      "Ġesc": 2602,
      "Ġminutes": 2603,
      "erp": 2604,
      "Ġtrue": 2605,
      "Ġwheel": 2606,
      "Ġlead": 2607,
      "Ġbrush": 2608,
      "ĠJohnny": 2609,
      "Ġchest": 2610,
      "Ġchew": 2611,
      "Ġanswered": 2612,
      "Ġwaves": 2613,
      "Ġweak": 2614,
      "Ġclown": 2615,
      "Ġboys": 2616,
      "Ġgathered": 2617,
      "iness": 2618,
      "Ġfake": 2619,
      "Ġspend": 2620,
      "Ġdrop": 2621,
      "Ġthankful": 2622,
      "illi": 2623,
      "Ġtears": 2624,
      "Ġrad": 2625,
      "ĠZ": 2626,
      "mb": 2627,
      "Ġtick": 2628,
      "Ġmiddle": 2629,
      "selves": 2630,
      "Ġcontent": 2631,
      "Sarah": 2632,
      "Ġhang": 2633,
      "Ġjelly": 2634,
      "Ġteam": 2635,
      "apped": 2636,
      "ots": 2637,
      "Ġeld": 2638,
      "Ġgets": 2639,
      "ushed": 2640,
      "Ġexcitement": 2641,
      "Ġcap": 2642,
      "Ġquestions": 2643,
      "Ġlemon": 2644,
      "Ġeggs": 2645,
      "Ġlock": 2646,
      "Who": 2647,
      "Ġtent": 2648,
      "arl": 2649,
      "Ġflag": 2650,
      "Ġskipped": 2651,
      "Ġfridge": 2652,
      "ipp": 2653,
      "Ġchange": 2654,
      "Ġsmelly": 2655,
      "Ġwrote": 2656,
      "Ġrid": 2657,
      "Ġdrawing": 2658,
      "Ġlit": 2659,
      "Ġrelax": 2660,
      "Ġadd": 2661,
      "llie": 2662,
      "Ġfruits": 2663,
      "Ġdiscovered": 2664,
      "oof": 2665,
      "aged": 2666,
      "Sorry": 2667,
      "Ġknight": 2668,
      "Ġbridge": 2669,
      "Ġsight": 2670,
      "ete": 2671,
      "ĠBl": 2672,
      "Ġbathroom": 2673,
      "Their": 2674,
      "Ġboard": 2675,
      "Ġmatch": 2676,
      "Ġmir": 2677,
      "Ġdogs": 2678,
      "Are": 2679,
      "Ġknife": 2680,
      "Ġshows": 2681,
      "Ġclap": 2682,
      "Ġlazy": 2683,
      "Ġfluffy": 2684,
      "Ġqueen": 2685,
      "Ġwolf": 2686,
      "Ġtag": 2687,
      "Ġsil": 2688,
      "Ġcovered": 2689,
      "ĠBrown": 2690,
      "que": 2691,
      "Ġcheck": 2692,
      "Ġsweetie": 2693,
      "Jill": 2694,
      "Ġfamous": 2695,
      "Ġmighty": 2696,
      "ork": 2697,
      "cept": 2698,
      "Ġbake": 2699,
      "Ġord": 2700,
      "Ġpicks": 2701,
      "Ġdrank": 2702,
      "Ġdistance": 2703,
      "Ġmic": 2704,
      "Ġang": 2705,
      "Ġnod": 2706,
      "ella": 2707,
      "Ġdisappeared": 2708,
      "ipper": 2709,
      "Ġlying": 2710,
      "ĠAt": 2711,
      "Ġdeer": 2712,
      "ror": 2713,
      "Ġwander": 2714,
      "Ġboss": 2715,
      "Ġcaterp": 2716,
      "Ġtowel": 2717,
      "Ġcrown": 2718,
      "Ġcaterpill": 2719,
      "Me": 2720,
      "usual": 2721,
      "Ġunusual": 2722,
      "Ġwalks": 2723,
      "Ġfre": 2724,
      "Ġmap": 2725,
      "Ġsoap": 2726,
      "Ġcalling": 2727,
      "Ġeager": 2728,
      "ti": 2729,
      "Ġbone": 2730,
      "Ġind": 2731,
      "Ġfis": 2732,
      "Ġmoving": 2733,
      "Ġshoot": 2734,
      "Ġed": 2735,
      "Ġsell": 2736,
      "Ġdecide": 2737,
      "Ġelderly": 2738,
      "obby": 2739,
      "ĠIf": 2740,
      "Ġlose": 2741,
      "Ġstones": 2742,
      "ination": 2743,
      "Ġborrow": 2744,
      "Ġcover": 2745,
      "Ġdig": 2746,
      "Ġdish": 2747,
      "elp": 2748,
      "Ġcleaned": 2749,
      "body": 2750,
      "Ġsplashed": 2751,
      "ating": 2752,
      "Sally": 2753,
      "Ġglow": 2754,
      "Ġcrawl": 2755,
      "Ġcage": 2756,
      "arth": 2757,
      "ĠEnd": 2758,
      "Ġcher": 2759,
      "imed": 2760,
      "work": 2761,
      "umbled": 2762,
      "Ġincred": 2763,
      "Ġhunt": 2764,
      "Ġfeathers": 2765,
      "Ġoffered": 2766,
      "Ġbanana": 2767,
      "asing": 2768,
      "Ġcaterpillar": 2769,
      "Ġyours": 2770,
      "Ġkindness": 2771,
      "Ġfather": 2772,
      "alous": 2773,
      "Ġcoins": 2774,
      "Ġeye": 2775,
      "Ġjuicy": 2776,
      "Ġbrilli": 2777,
      "Ġjealous": 2778,
      "Ġbranches": 2779,
      "Ġtape": 2780,
      "Ġcam": 2781,
      "Ġcost": 2782,
      "Ġbottom": 2783,
      "Ġorganized": 2784,
      "Ġmirror": 2785,
      "Ġlamp": 2786,
      "Ġbody": 2787,
      "Ġbrilliant": 2788,
      "Ġext": 2789,
      "Ġtoug": 2790,
      "Ġrare": 2791,
      "fast": 2792,
      "Ġtie": 2793,
      "Ġcraw": 2794,
      "Ġhorn": 2795,
      "Ġthick": 2796,
      "Ġcrawled": 2797,
      "Ġdepend": 2798,
      "Ġhurts": 2799,
      "Ġtunn": 2800,
      "port": 2801,
      "ĠNo": 2802,
      "enny": 2803,
      "Ġmeasure": 2804,
      "Ġcolourful": 2805,
      "Ġbalance": 2806,
      "Help": 2807,
      "Ġbubbles": 2808,
      "Ġbreakfast": 2809,
      "Ġimpressed": 2810,
      "Ġlicked": 2811,
      "Ġhero": 2812,
      "ugar": 2813,
      "Ġtwist": 2814,
      "olog": 2815,
      "Ġincredible": 2816,
      "Ġtiger": 2817,
      "Ġfool": 2818,
      "Ġrough": 2819,
      "Ġjoke": 2820,
      "Ġcross": 2821,
      "Ġonce": 2822,
      "Ġtrucks": 2823,
      "Ġwagon": 2824,
      "Ġfine": 2825,
      "Ġlibr": 2826,
      "Ġboxes": 2827,
      "Ġtough": 2828,
      "Ġadventur": 2829,
      "Ġsmoke": 2830,
      "Ġhappening": 2831,
      "Ġapolog": 2832,
      "appy": 2833,
      "bin": 2834,
      "Ġmanaged": 2835,
      "Ġcabin": 2836,
      "Ġsugar": 2837,
      "ilt": 2838,
      "amond": 2839,
      "?\".": 2840,
      "Ġflash": 2841,
      "Ġrealised": 2842,
      "Ġfavour": 2843,
      "Ġbitter": 2844,
      "Ġtrunk": 2845,
      "Ġadventurous": 2846,
      "How": 2847,
      "Ġwrapped": 2848,
      "hip": 2849,
      "rag": 2850,
      "Ġnoisy": 2851,
      "Ġchase": 2852,
      "Ġjog": 2853,
      "Ġfalls": 2854,
      "Ġflute": 2855,
      "ĠBlue": 2856,
      "Mummy": 2857,
      "Ġaw": 2858,
      "Ġadded": 2859,
      "Ġsugg": 2860,
      "Ġfavourite": 2861,
      "Ġsuggest": 2862,
      "Sp": 2863,
      "Ġdizzy": 2864,
      "ĠSusie": 2865,
      "Ġmelt": 2866,
      "Ġok": 2867,
      "Ġdiamond": 2868,
      "Ġrecord": 2869,
      "Ġharm": 2870,
      "Ġmixed": 2871,
      "Ġcircles": 2872,
      "Ġfoolish": 2873,
      "Al": 2874,
      "Ġsunf": 2875,
      "Ġmarket": 2876,
      "Ġpump": 2877,
      "Ġaccept": 2878,
      "lies": 2879,
      "Ġwand": 2880,
      "Ġlog": 2881,
      "Ġjam": 2882,
      "ured": 2883,
      "Ġguess": 2884,
      "Ġsafely": 2885,
      "land": 2886,
      "yal": 2887,
      "keep": 2888,
      "Ġlouder": 2889,
      "Ġextra": 2890,
      "ory": 2891,
      "Ġword": 2892,
      "Ġneeds": 2893,
      "Ġarg": 2894,
      "Ġlifted": 2895,
      "edient": 2896,
      "ery": 2897,
      "ately": 2898,
      "ĠMark": 2899,
      "Ġcheerful": 2900,
      "Ġturt": 2901,
      "ĠSn": 2902,
      "Ġshark": 2903,
      "Ġjack": 2904,
      "Ġmagn": 2905,
      "Ġdependable": 2906,
      "Ġter": 2907,
      "Ġpil": 2908,
      "Ġears": 2909,
      "Ġpointing": 2910,
      "uggled": 2911,
      "Ġdreamed": 2912,
      "Ġwrap": 2913,
      "Ġberries": 2914,
      "Ġmoms": 2915,
      "Ġagainst": 2916,
      "Ġgrandpa": 2917,
      "Ġgrown": 2918,
      "Ġjewel": 2919,
      "ira": 2920,
      "Ġpee": 2921,
      "Ġgiving": 2922,
      "Ġfigure": 2923,
      "Sue": 2924,
      "Ġham": 2925,
      "Ġgrace": 2926,
      "Ġweal": 2927,
      "Ġfrown": 2928,
      "Well": 2929,
      "Ġswan": 2930,
      "Ġbags": 2931,
      "Ġmovie": 2932,
      "Ġtwig": 2933,
      "Ġdreams": 2934,
      "Ġballoons": 2935,
      "Ġbelonged": 2936,
      "ique": 2937,
      "head": 2938,
      "omed": 2939,
      "Ġlearning": 2940,
      "Ġstronger": 2941,
      "laimed": 2942,
      "Gra": 2943,
      "Ġdolp": 2944,
      "Ġedge": 2945,
      "Ġexclaimed": 2946,
      "Ġyarn": 2947,
      "Ġsword": 2948,
      "Ġslipped": 2949,
      "Ġunique": 2950,
      "Ġsearch": 2951,
      "Ġloyal": 2952,
      "Ġchoose": 2953,
      "emo": 2954,
      "Ġhats": 2955,
      "Ġshake": 2956,
      "rage": 2957,
      "Ġloudly": 2958,
      "Ġenjoying": 2959,
      "fic": 2960,
      "oppy": 2961,
      "Ġhappiness": 2962,
      "Ġspun": 2963,
      "iable": 2964,
      "Ġobedient": 2965,
      "Ġtools": 2966,
      "anut": 2967,
      "anged": 2968,
      "Ġmarble": 2969,
      "ĠMrs": 2970,
      "ready": 2971,
      "Ġsquee": 2972,
      "Ġlaughs": 2973,
      "Ġrich": 2974,
      "Ġwalls": 2975,
      "Ġlean": 2976,
      "ĠElla": 2977,
      "Ġtele": 2978,
      "Ġreliable": 2979,
      "Ġcamera": 2980,
      "und": 2981,
      "Ġfour": 2982,
      "ĠFred": 2983,
      "iv": 2984,
      "ature": 2985,
      "Ġalready": 2986,
      "Ġmod": 2987,
      "Ġcleaning": 2988,
      "Ġunl": 2989,
      "Ġdiffic": 2990,
      "Ġangel": 2991,
      "Ġterri": 2992,
      "oot": 2993,
      "ĠMy": 2994,
      "Ġclay": 2995,
      "Ġbull": 2996,
      "Ġmeans": 2997,
      "Ġuseful": 2998,
      "Ġcrayon": 2999,
      "Billy": 3000,
      "Ġgoat": 3001,
      "ipe": 3002,
      "Ġpainting": 3003,
      "Ġbuttons": 3004,
      "gy": 3005,
      "ention": 3006,
      "Here": 3007,
      "Ġbarn": 3008,
      "ages": 3009,
      "Ġusing": 3010,
      "Ġcompet": 3011,
      "Ġstraw": 3012,
      "ĠLittle": 3013,
      "umbers": 3014,
      "Ġbloom": 3015,
      "Ġstubb": 3016,
      "Ġindepend": 3017,
      "Ġtunnel": 3018,
      "Ġturtle": 3019,
      "Ġtank": 3020,
      "Ġhelps": 3021,
      "Ġscare": 3022,
      "Ġcircle": 3023,
      "Ġdifficult": 3024,
      "cil": 3025,
      "Ġnorm": 3026,
      "Ġthoughtful": 3027,
      "Joe": 3028,
      "Ġpencil": 3029,
      "keeper": 3030,
      "Ġthu": 3031,
      "Ġfier": 3032,
      "Ġfright": 3033,
      "Ġbushes": 3034,
      "ĠTweety": 3035,
      "Ġpeanut": 3036,
      "Ġpainted": 3037,
      "Ġnosy": 3038,
      "Ġsounded": 3039,
      "zed": 3040,
      "Ġtimes": 3041,
      "Ġguit": 3042,
      "Ġstream": 3043,
      "Ġgem": 3044,
      "Ġwhale": 3045,
      "Ġoffice": 3046,
      "Ġcounted": 3047,
      "Ġdove": 3048,
      "Ġref": 3049,
      "Ġskin": 3050,
      "Ġbald": 3051,
      "Ġparrot": 3052,
      "Ġliz": 3053,
      "Ġcompetit": 3054,
      "Ġstubborn": 3055,
      "Amy": 3056,
      "Ġbirdie": 3057,
      "Ġfierce": 3058,
      "wards": 3059,
      "Ġtoast": 3060,
      "ado": 3061,
      "ĠBu": 3062,
      "Ġknows": 3063,
      "ye": 3064,
      "Ġrug": 3065,
      "Ġisland": 3066,
      "ĠWhenever": 3067,
      "Ġinvited": 3068,
      "Ġwealthy": 3069,
      "Ġnormal": 3070,
      "Ġcop": 3071,
      "Ġsaying": 3072,
      "Ġswe": 3073,
      "Ġexplored": 3074,
      "Ġjoined": 3075,
      "cient": 3076,
      "ject": 3077,
      "Ġfrag": 3078,
      "Ġicy": 3079,
      "orge": 3080,
      "Ġsoar": 3081,
      "Ġweird": 3082,
      "Ġnotice": 3083,
      "Ġcrack": 3084,
      "Ġindependent": 3085,
      "Ġnumbers": 3086,
      "Ġsunflower": 3087,
      "Ġpost": 3088,
      "Ġmole": 3089,
      "Ġbrothers": 3090,
      "Ġdesign": 3091,
      "Ġpirate": 3092,
      "inary": 3093,
      "erry": 3094,
      "Ġgrap": 3095,
      "Ġbossy": 3096,
      "Ġfat": 3097,
      "Ġsmaller": 3098,
      "Ġharder": 3099,
      "ouses": 3100,
      "Ġbuilt": 3101,
      "Ġspoiled": 3102,
      "ines": 3103,
      "Ġstairs": 3104,
      "Ġancient": 3105,
      "Ġseem": 3106,
      "Ġprep": 3107,
      "ĠToday": 3108,
      "Ġguitar": 3109,
      "Ġstumbled": 3110,
      "Ġlights": 3111,
      "Ġmarch": 3112,
      "Ġchicken": 3113,
      "Ġfountain": 3114,
      "Ġsauce": 3115,
      "Ġstri": 3116,
      "Ġrode": 3117,
      "Ġenorm": 3118,
      "Ġpicking": 3119,
      "Ġbeet": 3120,
      "Ġcact": 3121,
      "Ġvalu": 3122,
      "Ġescape": 3123,
      "Ġfragile": 3124,
      "Ġenormous": 3125,
      "Ġhouses": 3126,
      "Ġresc": 3127,
      "Ġpoured": 3128,
      "Ġseeds": 3129,
      "Ġfresh": 3130,
      "Ġsuit": 3131,
      "Ġchar": 3132,
      "ĠPete": 3133,
      "Ġhose": 3134,
      "Ġenvel": 3135,
      "ÅĵLet": 3136,
      "Ġreminded": 3137,
      "ither": 3138,
      "Ġpow": 3139,
      "Ġmem": 3140,
      "upid": 3141,
      "Ġbump": 3142,
      "Ġcudd": 3143,
      "irp": 3144,
      "Ġfork": 3145,
      "Ġtrump": 3146,
      "Ġproudly": 3147,
      "Ġkinds": 3148,
      "Ġbounce": 3149,
      "Ġpractice": 3150,
      "Ġways": 3151,
      "Ġpenny": 3152,
      "Ġcity": 3153,
      "Ġpepper": 3154,
      "Ġsalad": 3155,
      "ĠAlice": 3156,
      "Ġcostum": 3157,
      "Spot": 3158,
      "Ġfrightened": 3159,
      "aid": 3160,
      "ache": 3161,
      "Ġsearching": 3162,
      "Ġchose": 3163,
      "Ġfingers": 3164,
      "Ġshells": 3165,
      "Ġadmired": 3166,
      "Ġsolve": 3167,
      "Ġcactus": 3168,
      "Ġtummy": 3169,
      "Ġwake": 3170,
      "Ġhalf": 3171,
      "Ġthirst": 3172,
      "Ġroof": 3173,
      "Ġshowing": 3174,
      "ola": 3175,
      "Ġdelighted": 3176,
      "na": 3177,
      "Ġcone": 3178,
      "Ġdull": 3179,
      "anger": 3180,
      "dom": 3181,
      "Ġnurse": 3182,
      "alk": 3183,
      "arsh": 3184,
      "Ġboats": 3185,
      "Ġbarber": 3186,
      "eorge": 3187,
      "Ġbeak": 3188,
      "Ġstage": 3189,
      "Ġstupid": 3190,
      "Ġexcitedly": 3191,
      "Ġabove": 3192,
      "berry": 3193,
      "Ġstudy": 3194,
      "Ġbatter": 3195,
      "Ġspace": 3196,
      "Ġsuggested": 3197,
      "Ġlizard": 3198,
      "Ġshone": 3199,
      "Ġcompass": 3200,
      "Ġregular": 3201,
      "Ġflashlight": 3202,
      "vice": 3203,
      "Ġhoop": 3204,
      "Ġcere": 3205,
      "Ġlocked": 3206,
      "Ġspilled": 3207,
      "Ġshape": 3208,
      "Ġattic": 3209,
      "Ġterrible": 3210,
      "Ġtooth": 3211,
      "ĠNemo": 3212,
      "Ġvaluable": 3213,
      "Ġtrumpet": 3214,
      "time": 3215,
      "arry": 3216,
      "Ġarrow": 3217,
      "ress": 3218,
      "Ġpant": 3219,
      "Ġyet": 3220,
      "Ġearth": 3221,
      "ĠBella": 3222,
      "illie": 3223,
      "Ġcheap": 3224,
      "ĠBobo": 3225,
      "Ġdesk": 3226,
      "Ġkicked": 3227,
      "Ġserious": 3228,
      "Ġsuccessful": 3229,
      "Ġthirsty": 3230,
      "Ġlow": 3231,
      "ĠDave": 3232,
      "Em": 3233,
      "het": 3234,
      "inal": 3235,
      "Ġclum": 3236,
      "Ġlab": 3237,
      "Ġscrat": 3238,
      "Ġorig": 3239,
      "com": 3240,
      "Ġow": 3241,
      "Ġrat": 3242,
      "Ġstove": 3243,
      "corn": 3244,
      "Ġavo": 3245,
      "Ġenvelope": 3246,
      "Ġwitch": 3247,
      "ĠMummy": 3248,
      "Ġthemselves": 3249,
      "Ġimpress": 3250,
      "Ġer": 3251,
      "Ġson": 3252,
      "ĠWhile": 3253,
      "aghet": 3254,
      "Ġcomb": 3255,
      "Ġbrightly": 3256,
      "Ġstops": 3257,
      "Ġthunder": 3258,
      "aghetti": 3259,
      "Ġhay": 3260,
      "Ġbees": 3261,
      "Ġstamp": 3262,
      "iew": 3263,
      "Ġlaw": 3264,
      "Ġraced": 3265,
      "Ġdreaming": 3266,
      "Ġscreen": 3267,
      "ĠMar": 3268,
      "Ġcareless": 3269,
      "Ġsniff": 3270,
      "Ġoriginal": 3271,
      "Ġwashed": 3272,
      "Ġspaghetti": 3273,
      "ĠYour": 3274,
      "Ġchanged": 3275,
      "Ġview": 3276,
      "Ġwiped": 3277,
      "ĠU": 3278,
      "uth": 3279,
      "Ġending": 3280,
      "Ġstickers": 3281,
      "Ġhelm": 3282,
      "Ġrushed": 3283,
      "ĠDucky": 3284,
      "Ġdelicate": 3285,
      "Ġwarned": 3286,
      "Ġbeetle": 3287,
      "Ġflex": 3288,
      "Ġmis": 3289,
      "gest": 3290,
      "ience": 3291,
      "isk": 3292,
      "Ġthose": 3293,
      "Ġyog": 3294,
      "Ġcarp": 3295,
      "berries": 3296,
      "Ġleaving": 3297,
      "Ġsteal": 3298,
      "Ġpersist": 3299,
      "Ġcompassion": 3300,
      "Ġclumsy": 3301,
      "Ġtor": 3302,
      "Ġbiggest": 3303,
      "!\".": 3304,
      "Ġtravel": 3305,
      "Ġdead": 3306,
      "oomy": 3307,
      "Ġpopcorn": 3308,
      "Ġdough": 3309,
      "Ġbean": 3310,
      "Ġfinding": 3311,
      "Ġenc": 3312,
      "Ġpumpkin": 3313,
      "Ġing": 3314,
      "ision": 3315,
      "Ġsne": 3316,
      "Ġtomato": 3317,
      "Ġdiscover": 3318,
      "Ġwire": 3319,
      "anny": 3320,
      "Ġlibrary": 3321,
      "While": 3322,
      "uring": 3323,
      "robe": 3324,
      "Ġgrand": 3325,
      "Ġsnee": 3326,
      "Ġdeliver": 3327,
      "Ġcomplet": 3328,
      "redient": 3329,
      "Ġgraceful": 3330,
      "Ġingredient": 3331,
      "Ġmeal": 3332,
      "Ġsorts": 3333,
      "Ġunk": 3334,
      "Ġtelling": 3335,
      "Ġcereal": 3336,
      "Ġknock": 3337,
      "Ġuncle": 3338,
      "Ġimagined": 3339,
      "Ġearly": 3340,
      "Ġpeeked": 3341,
      "Ġtask": 3342,
      "âĤ¬âĢ": 3343,
      "Ġtrap": 3344,
      "Ġhairy": 3345,
      "Ġmissing": 3346,
      "Ġcounting": 3347,
      "Ġingredients": 3348,
      "Ġadvice": 3349,
      "Ġpup": 3350,
      "uper": 3351,
      "Ġjacket": 3352,
      "Ġmel": 3353,
      "Ġshiver": 3354,
      "Ġzip": 3355,
      "Ġhumble": 3356,
      "Ġforth": 3357,
      "Ġstranger": 3358,
      "Ġsquare": 3359,
      "Ġdoesn": 3360,
      "Ġpale": 3361,
      "Ġguard": 3362,
      "Ġdestro": 3363,
      "ĠBobby": 3364,
      "Ġflexible": 3365,
      "Ġsudden": 3366,
      "Ġhipp": 3367,
      "ilty": 3368,
      "Ġplayful": 3369,
      "Ġdriving": 3370,
      "Ġguilty": 3371,
      "Ġpige": 3372,
      "Ġaunt": 3373,
      "Ġquestion": 3374,
      "Ġthinking": 3375,
      "Ġwhispered": 3376,
      "Ġimpressive": 3377,
      "Ġcards": 3378,
      "Ġnicely": 3379,
      "Ġjolly": 3380,
      "Ġcreate": 3381,
      "Ġopens": 3382,
      "Ġcollar": 3383,
      "Ġcarrying": 3384,
      "Ġslides": 3385,
      "Ġspeed": 3386,
      "nown": 3387,
      "Ġcur": 3388,
      "Ġallowed": 3389,
      "cod": 3390,
      "Ġtwirled": 3391,
      "Ġhandle": 3392,
      "Ġprint": 3393,
      "Ġsparkled": 3394,
      "Ġhunter": 3395,
      "illa": 3396,
      "Ġbrace": 3397,
      "Ġsticker": 3398,
      "Ġpopular": 3399,
      "ud": 3400,
      "Ġcush": 3401,
      "Ġumb": 3402,
      "ement": 3403,
      "Ġrub": 3404,
      "host": 3405,
      "Ġbracelet": 3406,
      "Ġumbre": 3407,
      "fa": 3408,
      "Ġtap": 3409,
      "Ġtied": 3410,
      "Ġsink": 3411,
      "Ġanx": 3412,
      "Ġenv": 3413,
      "Ġrubb": 3414,
      "ations": 3415,
      "Ġbase": 3416,
      "Ġdisg": 3417,
      "Ġrubbed": 3418,
      "comfort": 3419,
      "bled": 3420,
      "Ġfriendship": 3421,
      "Ġcarpet": 3422,
      "tter": 3423,
      "Ġuncomfort": 3424,
      "Ġcooking": 3425,
      "Ġcharming": 3426,
      "Ġpersistent": 3427,
      "Ġdisgust": 3428,
      "Ġuncomfortable": 3429,
      "arian": 3430,
      "Ġgum": 3431,
      "Ġgira": 3432,
      "Ġshocked": 3433,
      "ĠRose": 3434,
      "Ġholds": 3435,
      "awn": 3436,
      "Ġwing": 3437,
      "ream": 3438,
      "Ġghost": 3439,
      "Ġrefused": 3440,
      "ellig": 3441,
      "ĠRed": 3442,
      "Ġperm": 3443,
      "Ġmetal": 3444,
      "Ġanxious": 3445,
      "Ġintellig": 3446,
      "Ġbutterflies": 3447,
      "Ġdolphin": 3448,
      "Ġdust": 3449,
      "Ġscatter": 3450,
      "Ġsett": 3451,
      "Ġcrocod": 3452,
      "Ġgasped": 3453,
      "Ġunknown": 3454,
      "Ġpatter": 3455,
      "Ġscoot": 3456,
      "Ġeng": 3457,
      "Ġcomput": 3458,
      "Ġpatch": 3459,
      "Ġpants": 3460,
      "loo": 3461,
      "aroo": 3462,
      "Ġneat": 3463,
      "ugged": 3464,
      "angaroo": 3465,
      "Ġspinning": 3466,
      "Ġnature": 3467,
      "Ġshel": 3468,
      "Ġkangaroo": 3469,
      "Ġchasing": 3470,
      "Ġcelebrate": 3471,
      "Ġpattern": 3472,
      "Ġled": 3473,
      "Ġmoder": 3474,
      "Ġpasta": 3475,
      "Ġwheels": 3476,
      "Ġnames": 3477,
      "Ġtruth": 3478,
      "Ġordinary": 3479,
      "Ġhammer": 3480,
      "ÅĵLetÃ¢": 3481,
      "Ġhippo": 3482,
      "Ġmask": 3483,
      "Ġsurf": 3484,
      "Ġtorn": 3485,
      "Ġencou": 3486,
      "Ow": 3487,
      "Ġresist": 3488,
      "Ġcoco": 3489,
      "Ġimpat": 3490,
      "ĠGrandpa": 3491,
      "Ġcocoa": 3492,
      "See": 3493,
      "Ġgoose": 3494,
      "Ġstat": 3495,
      "ĠAlex": 3496,
      "ÅĵIt": 3497,
      "Ġphot": 3498,
      "ĠEllie": 3499,
      "Ġacorn": 3500,
      "uddy": 3501,
      "Ġperform": 3502,
      "eer": 3503,
      "Ġbent": 3504,
      "Ġpand": 3505,
      "Ġotter": 3506,
      "ĠKim": 3507,
      "Ġgrowing": 3508,
      "Ġimpatient": 3509,
      "Ġmath": 3510,
      "iches": 3511,
      "ĠWh": 3512,
      "Ġskip": 3513,
      "Ġsnuggled": 3514,
      "Ġcrazy": 3515,
      "Ġsleeping": 3516,
      "ffee": 3517,
      "Ġprize": 3518,
      "Ġharmless": 3519,
      "Ġmodern": 3520,
      "ray": 3521,
      "Ġoat": 3522,
      "orant": 3523,
      "Ġshine": 3524,
      "Ġrece": 3525,
      "Ġscale": 3526,
      "ÅĵWhat": 3527,
      "Ġfireman": 3528,
      "Ġcrane": 3529,
      "Ġrestaur": 3530,
      "Ġmagnet": 3531,
      "Ġrestaurant": 3532,
      "Ġbeauty": 3533,
      "Ġtrash": 3534,
      "Ġwindows": 3535,
      "Ġsplit": 3536,
      "Ġattract": 3537,
      "Ġpotato": 3538,
      "Ġdestroy": 3539,
      "ĠHere": 3540,
      "Ġreind": 3541,
      "ĠFr": 3542,
      "Ġhanded": 3543,
      "Ġunpack": 3544,
      "Ġshoe": 3545,
      "Ġplaced": 3546,
      "Ġintelligent": 3547,
      "ĠMike": 3548,
      "ĠLook": 3549,
      "Ġspoke": 3550,
      "Ġcricket": 3551,
      "Go": 3552,
      "llip": 3553,
      "Ġcompassionate": 3554,
      "Ġdisgusting": 3555,
      "llipop": 3556,
      "cut": 3557,
      "Ġsofa": 3558,
      "Ġumbrella": 3559,
      "Ġtem": 3560,
      "Ġahead": 3561,
      "Ġload": 3562,
      "Ġlollipop": 3563,
      "Ġstarts": 3564,
      "noon": 3565,
      "Ġsuper": 3566,
      "Ġafternoon": 3567,
      "Ġdrawer": 3568,
      "Ġwheat": 3569,
      "Ġdistant": 3570,
      "Ġsandwiches": 3571,
      "Ġcandle": 3572,
      "Ġwaff": 3573,
      "ĠSm": 3574,
      "Ġyawn": 3575,
      "Ġignorant": 3576,
      "ince": 3577,
      "Ġchance": 3578,
      "ĠFin": 3579,
      "ĠCl": 3580,
      "ips": 3581,
      "aches": 3582,
      "Ġtriang": 3583,
      "ĠSnow": 3584,
      "Ġreindeer": 3585,
      "ikes": 3586,
      "oe": 3587,
      "Ġdug": 3588,
      "Ġhedge": 3589,
      "Ġrules": 3590,
      "Ġcountry": 3591,
      "Ġspring": 3592,
      "ophone": 3593,
      "Ġpigeon": 3594,
      "aby": 3595,
      "Ġhook": 3596,
      "Ġshield": 3597,
      "Ġreco": 3598,
      "Ġflour": 3599,
      "Ġtrop": 3600,
      "Ġclock": 3601,
      "Ġbin": 3602,
      "Ġpurse": 3603,
      "Ġshut": 3604,
      "Ġcoffee": 3605,
      "ĠcouldnÃ¢": 3606,
      "Ġsupport": 3607,
      "Ġrestless": 3608,
      "Ġhung": 3609,
      "Ġcupboard": 3610,
      "Ġtire": 3611,
      "Ġharsh": 3612,
      "Ġcord": 3613,
      "Ġol": 3614,
      "Ġjug": 3615,
      "Ġorder": 3616,
      "Ġgifted": 3617,
      "Ġmailbox": 3618,
      "ĠTweetie": 3619,
      "Ġtrophy": 3620,
      "Ġsym": 3621,
      "erable": 3622,
      "Ġmay": 3623,
      "ict": 3624,
      "used": 3625,
      "Ġjumps": 3626,
      "ophie": 3627,
      "cano": 3628,
      "Ġnote": 3629,
      "Ġsadly": 3630,
      "Ġcats": 3631,
      "Ġshrimp": 3632,
      "Ġsilver": 3633,
      "Ġmiserable": 3634,
      "af": 3635,
      "Ġsend": 3636,
      "Ġshadow": 3637,
      "ices": 3638,
      "Ġmush": 3639,
      "Ġpretending": 3640,
      "cycle": 3641,
      "Ġfilm": 3642,
      "Ġcrocodile": 3643,
      "gu": 3644,
      "Ġax": 3645,
      "Ġitself": 3646,
      "Ġleop": 3647,
      "aser": 3648,
      "ĠPolly": 3649,
      "gging": 3650,
      "Ġengine": 3651,
      "Yay": 3652,
      "cu": 3653,
      "ibb": 3654,
      "shed": 3655,
      "Ġcamp": 3656,
      "bol": 3657,
      "Ġfurther": 3658,
      "Ġcourage": 3659,
      "Ġpracticed": 3660,
      "Ġhurry": 3661,
      "Ġmelon": 3662,
      "Ġmuff": 3663,
      "Ġanywhere": 3664,
      "Ġimpro": 3665,
      "Ġobject": 3666,
      "Ġcomputer": 3667,
      "Ġsymbol": 3668,
      "gn": 3669,
      "Ġbri": 3670,
      "Ġfu": 3671,
      "Ġmill": 3672,
      "Ġvine": 3673,
      "uct": 3674,
      "Ġvol": 3675,
      "Ġtrick": 3676,
      "Ġcreatures": 3677,
      "Ġgoal": 3678,
      "Ġcompl": 3679,
      "ÅĵYes": 3680,
      "Ġtowers": 3681,
      "Ġjeep": 3682,
      "Ġenth": 3683,
      "aled": 3684,
      "Ġrose": 3685,
      "Ġpainter": 3686,
      "Ġrepe": 3687,
      "Ġrice": 3688,
      "Ġstack": 3689,
      "Ġcooler": 3690,
      "Ġreading": 3691,
      "Alice": 3692,
      "Ġenvious": 3693,
      "Ġpony": 3694,
      "ĠSandy": 3695,
      "Ġstation": 3696,
      "Ġparade": 3697,
      "Ġwishes": 3698,
      "az": 3699,
      "Ġneedle": 3700,
      "Ġcryst": 3701,
      "Ġforgave": 3702,
      "Ġcartoon": 3703,
      "iron": 3704,
      "stri": 3705,
      "Ġkay": 3706,
      "ĠAre": 3707,
      "ÅĵThat": 3708,
      "ĠToby": 3709,
      "Ġtreasures": 3710,
      "Ġstretched": 3711,
      "Ġaxe": 3712,
      "Ġenthus": 3713,
      "Ġreward": 3714,
      "Ġnowhere": 3715,
      "Ġhelmet": 3716,
      "Ġattractive": 3717,
      "ric": 3718,
      "Ġjet": 3719,
      "Ġhelpless": 3720,
      "Ġlaser": 3721,
      "Ġolder": 3722,
      "ĠGive": 3723,
      "Ġbrighter": 3724,
      "Ġsecond": 3725,
      "Ġtroubled": 3726,
      "Ġletters": 3727,
      "Ġsweater": 3728,
      "Ġoy": 3729,
      "Ġscold": 3730,
      "ĠEventually": 3731,
      "Ġmessage": 3732,
      "Ġpastry": 3733,
      "Ġfootball": 3734,
      "cream": 3735,
      "Ġten": 3736,
      "Ġbadly": 3737,
      "Ġtrack": 3738,
      "Ġpackage": 3739,
      "Ġvalue": 3740,
      "ĠBrownie": 3741,
      "Ġcompetitive": 3742,
      "Ġcushion": 3743,
      "Ġscooter": 3744,
      "Ġpanda": 3745,
      "Ġpilot": 3746,
      "Ġrecogn": 3747,
      "Ġmushroom": 3748,
      "Ġtheater": 3749,
      "Ġpor": 3750,
      "ĠTr": 3751,
      "Ġsock": 3752,
      "Ġalert": 3753,
      "ĠWhere": 3754,
      "Ġpressed": 3755,
      "Ġgloomy": 3756,
      "Ġtricks": 3757,
      "Ġvisited": 3758,
      "Ġgiggle": 3759,
      "ebra": 3760,
      "Ġsalt": 3761,
      "Ġfearful": 3762,
      "Ġmicr": 3763,
      "Ġhall": 3764,
      "htub": 3765,
      "Ġspell": 3766,
      "Ġanyway": 3767,
      "ĠPe": 3768,
      "Ġbandage": 3769,
      "Ġhuman": 3770,
      "orable": 3771,
      "Ġbeep": 3772,
      "Ġswitch": 3773,
      "Ġtear": 3774,
      "ĠPaul": 3775,
      "Ġshouts": 3776,
      "Ġdeaf": 3777,
      "Ġadmire": 3778,
      "Ġbathtub": 3779,
      "Ġeraser": 3780,
      "Re": 3781,
      "ef": 3782,
      "kelet": 3783,
      "Ġzebra": 3784,
      "Ġpengu": 3785,
      "Ġbarrel": 3786,
      "Ġcows": 3787,
      "Ġvolcano": 3788,
      "Ġmicrophone": 3789,
      "orilla": 3790,
      "Ġener": 3791,
      "Ġthread": 3792,
      "Ġswinging": 3793,
      "Ġroared": 3794,
      "Ġraven": 3795,
      "Ġbounced": 3796,
      "hino": 3797,
      "Ġsoldier": 3798,
      "Ġavoc": 3799,
      "Ġleopard": 3800,
      "stairs": 3801,
      "Ġstarting": 3802,
      "Ġtray": 3803,
      "Ġstatue": 3804,
      "Ġsize": 3805,
      "Ġhive": 3806,
      "opus": 3807,
      "Ġholes": 3808,
      "Ġstrugg": 3809,
      "ctopus": 3810,
      "ĠPat": 3811,
      "Ġobser": 3812,
      "Ġnuts": 3813,
      "Ġmodest": 3814,
      "iskers": 3815,
      "ĠSmith": 3816,
      "ci": 3817,
      "year": 3818,
      "Ġsent": 3819,
      "ĠLola": 3820,
      "Ġpeach": 3821,
      "Ġadorable": 3822,
      "Benny": 3823,
      "Ġsquash": 3824,
      "ebook": 3825,
      "Ġsteps": 3826,
      "Ġriding": 3827,
      "keleton": 3828,
      "Mary": 3829,
      "Ġoctopus": 3830,
      "ckey": 3831,
      "Ġnotebook": 3832,
      "Ġhockey": 3833,
      "Ġrespectful": 3834,
      "Ġcurt": 3835,
      "Ġlip": 3836,
      "Ġshaking": 3837,
      "Ġbackpack": 3838,
      "Ġchain": 3839,
      "Ġcurtain": 3840,
      "Ġants": 3841,
      "Ġfive": 3842,
      "Ġmop": 3843,
      "Ġgorilla": 3844,
      "Ġbehave": 3845,
      "Ġhaircut": 3846,
      "Ġwallet": 3847,
      "Ġshopkeeper": 3848,
      "ceros": 3849,
      "Ġfilthy": 3850,
      "strich": 3851,
      "hinoceros": 3852,
      "Ġur": 3853,
      "ceed": 3854,
      "Ġeither": 3855,
      "Ġboots": 3856,
      "Ġpulls": 3857,
      "Ġtripped": 3858,
      "Ġpapers": 3859,
      "Ġstirred": 3860,
      "Give": 3861,
      "If": 3862,
      "Ġpad": 3863,
      "ĠMandy": 3864,
      "Ġnobody": 3865,
      "Ġsunset": 3866,
      "Ġexplain": 3867,
      "Ġchecked": 3868,
      "Ġsandbox": 3869,
      "ccol": 3870,
      "arnt": 3871,
      "Ġlearnt": 3872,
      "Ġsort": 3873,
      "Ġavail": 3874,
      "Ġdecorate": 3875,
      "ccoli": 3876,
      "erc": 3877,
      "Ġmug": 3878,
      "Ġpun": 3879,
      "Ġgolf": 3880,
      "Ġmeas": 3881,
      "Ġquar": 3882,
      "ĠGeorge": 3883,
      "ĠRo": 3884,
      "Ġpushing": 3885,
      "Ġmotorcycle": 3886,
      "Ġrescue": 3887,
      "Ġcrystal": 3888,
      "ipping": 3889,
      "Ġrhinoceros": 3890,
      "Ġsomewhere": 3891,
      "Ġvest": 3892,
      "Ġpebble": 3893,
      "Ġart": 3894,
      "Ġlightning": 3895,
      "Ġsailor": 3896,
      "Ġcooked": 3897,
      "Ġpowder": 3898,
      "iest": 3899,
      "Ġstared": 3900,
      "Ġshort": 3901,
      "ief": 3902,
      "Ġclapping": 3903,
      "Ġrolling": 3904,
      "Ġgiraffe": 3905,
      "Ġporch": 3906,
      "Ġskeleton": 3907,
      "Ġdess": 3908,
      "ĠBunny": 3909,
      "Ġvi": 3910,
      "ĠEverything": 3911,
      "Ġjokes": 3912,
      "Ġexper": 3913,
      "ses": 3914,
      "Ġbet": 3915,
      "render": 3916,
      "Ġincl": 3917,
      "Ġunlock": 3918,
      "Ġavailable": 3919,
      "reci": 3920,
      "Ġcomet": 3921,
      "ĠBuddy": 3922,
      "sely": 3923,
      "Ġtrains": 3924,
      "Ġdishes": 3925,
      "Ġpoint": 3926,
      "Ġorganize": 3927,
      "Ġsucceed": 3928,
      "Ġkayak": 3929,
      "par": 3930,
      "Ġhappier": 3931,
      "seum": 3932,
      "Ġexerc": 3933,
      "Ġleash": 3934,
      "ucked": 3935,
      "Ġquite": 3936,
      "enry": 3937,
      "ooped": 3938,
      "Ġstom": 3939,
      "Ġhadn": 3940,
      "Ġsepar": 3941,
      "Ġlaund": 3942,
      "astic": 3943,
      "Ġlistening": 3944,
      "osie": 3945,
      "Ġbarking": 3946,
      "Ġpaws": 3947,
      "Ġfrowned": 3948,
      "hood": 3949,
      "ube": 3950,
      "Ġtur": 3951,
      "Ġtoil": 3952,
      "elery": 3953,
      "Ġmuseum": 3954,
      "Ġcolours": 3955,
      "Ġclimbing": 3956,
      "Ġappreci": 3957,
      "Ġcomplete": 3958,
      "Ġtriangle": 3959,
      "Ġcase": 3960,
      "Ġweather": 3961,
      "Ġseal": 3962,
      "ummer": 3963,
      "Ġpeek": 3964,
      "Ġunh": 3965,
      "Ġzipper": 3966,
      "Ġdessert": 3967,
      "Ġlaundry": 3968,
      "night": 3969,
      "ĠSh": 3970,
      "Ġcane": 3971,
      "Ġbroccoli": 3972,
      "ĠJoey": 3973,
      "Little": 3974,
      "inking": 3975,
      "Ġreef": 3976,
      "ĠMaria": 3977,
      "ĠWhiskers": 3978,
      "ubby": 3979,
      "Ġiron": 3980,
      "Ġputting": 3981,
      "Ġclosely": 3982,
      "Ġpushes": 3983,
      "Ġmonkeys": 3984,
      "Ġsurrender": 3985,
      "Jenny": 3986,
      "cast": 3987,
      "Ġpipe": 3988,
      "Ġyach": 3989,
      "Ġspir": 3990,
      "Ġbreat": 3991,
      "Ġlions": 3992,
      "Ġblowing": 3993,
      "io": 3994,
      "Ġsle": 3995,
      "Ġped": 3996,
      "urb": 3997,
      "Ġmarched": 3998,
      "Ġdisturb": 3999,
      "Ġspeak": 4000,
      "Ġturkey": 4001,
      "Ġtoilet": 4002,
      "Bye": 4003,
      "aked": 4004,
      "ges": 4005,
      "ron": 4006,
      "Ġbicy": 4007,
      "Ġfinds": 4008,
      "Ġskill": 4009,
      "Ġdrawings": 4010,
      "Ġbarks": 4011,
      "Ġlively": 4012,
      "Ġstuffed": 4013,
      "heart": 4014,
      "Ġnail": 4015,
      "Ġrever": 4016,
      "ĠAndy": 4017,
      "Ġpair": 4018,
      "Ġsandcast": 4019,
      "Ġnapkin": 4020,
      "Ġended": 4021,
      "Ġdancer": 4022,
      "Ġpolish": 4023,
      "Ġcostume": 4024,
      "ĠSnowy": 4025,
      "Ġyacht": 4026,
      "Ġostrich": 4027,
      "anic": 4028,
      "Ġink": 4029,
      "Ġfort": 4030,
      "Ġsoftly": 4031,
      "Ġmild": 4032,
      "iling": 4033,
      "Ġribb": 4034,
      "chanic": 4035,
      "ected": 4036,
      "Ġraining": 4037,
      "olin": 4038,
      "gs": 4039,
      "vator": 4040,
      "Ġtube": 4041,
      "Ġlid": 4042,
      "Ġoil": 4043,
      "Ġclub": 4044,
      "Ġchubby": 4045,
      "Ġuniver": 4046,
      "Ġappl": 4047,
      "Ġthanks": 4048,
      "Ġinf": 4049,
      "ecause": 4050,
      "Ġmechanic": 4051,
      "ĠWill": 4052,
      "play": 4053,
      "Ġcrow": 4054,
      "Ġpiano": 4055,
      "ĠGrace": 4056,
      "Ġelevator": 4057,
      "Ġbasketball": 4058,
      "aulif": 4059,
      "Ġbubble": 4060,
      "Ġhoping": 4061,
      "Ġbelt": 4062,
      "Ġmixer": 4063,
      "Ġstrip": 4064,
      "Ġunhappy": 4065,
      "Ġcaulif": 4066,
      "ison": 4067,
      "Ġglove": 4068,
      "Ġairport": 4069,
      "Ġspirit": 4070,
      "Ġwife": 4071,
      "Ġbikes": 4072,
      "Ġhut": 4073,
      "ites": 4074,
      "Ġinsist": 4075,
      "Ġpress": 4076,
      "Ġjudge": 4077,
      "Ġcups": 4078,
      "Ġwelcomed": 4079,
      "Ġframe": 4080,
      "Ġmagaz": 4081,
      "Ġgrabs": 4082,
      "Everyone": 4083,
      "Ġdrops": 4084,
      "Ġleaned": 4085,
      "edy": 4086,
      "Ġmama": 4087,
      "Ġthief": 4088,
      "stic": 4089,
      "Ġgrapes": 4090,
      "âĤ¬âĢľ": 4091,
      "Ġquarrel": 4092,
      "mand": 4093,
      "Ġevening": 4094,
      "Ġprov": 4095,
      "Ġrepair": 4096,
      "Ġbaseball": 4097,
      "Ġtemp": 4098,
      "ws": 4099,
      "Ġcelery": 4100,
      "ĠMillie": 4101,
      "Ġfactor": 4102,
      "iastic": 4103,
      "Ġbuzz": 4104,
      "Ġimagine": 4105,
      "Ġradish": 4106,
      "arlie": 4107,
      "Ġapologized": 4108,
      "Ġsneak": 4109,
      "Ġenthusiastic": 4110,
      "Ġoyster": 4111,
      "Ġtub": 4112,
      "Ġluck": 4113,
      "Ġmen": 4114,
      "Ġrag": 4115,
      "Ġgiven": 4116,
      "Ġdisplay": 4117,
      "Ġcounter": 4118,
      "Ġbreaks": 4119,
      "Ġcherries": 4120,
      "Ġshelter": 4121,
      "ĠBear": 4122,
      "Ġmule": 4123,
      "ĠdidnÃ¢": 4124,
      "Ġmarry": 4125,
      "Ġveil": 4126,
      "Ġzoomed": 4127,
      "Ġfactory": 4128,
      "aff": 4129,
      "azz": 4130,
      "zzy": 4131,
      "ĠBill": 4132,
      "Ġfisher": 4133,
      "Ġbicycle": 4134,
      "Ġlend": 4135,
      "Ġshade": 4136,
      "Ġfeelings": 4137,
      "Ġenergy": 4138,
      "Ġpoem": 4139,
      "Ġbul": 4140,
      "Ġhopes": 4141,
      "Ġfrogs": 4142,
      "Ġcauliflower": 4143,
      "imney": 4144,
      "Ġrod": 4145,
      "Ġprun": 4146,
      "Ġchimney": 4147,
      "Ġbears": 4148,
      "Grandma": 4149,
      "Daisy": 4150,
      "Ġfurn": 4151,
      "iture": 4152,
      "Ġweep": 4153,
      "Ġpole": 4154,
      "Ġstretch": 4155,
      "Ġfurniture": 4156,
      "Ġgym": 4157,
      "Ġplayer": 4158,
      "apa": 4159,
      "Ġraft": 4160,
      "Ġmaze": 4161,
      "Ġpaid": 4162,
      "Ġbulb": 4163,
      "ense": 4164,
      "any": 4165,
      "Ġstaff": 4166,
      "chair": 4167,
      "Ġshakes": 4168,
      "icer": 4169,
      "ippery": 4170,
      "ccer": 4171,
      "Ġdive": 4172,
      "Ġsoccer": 4173,
      "Ġlives": 4174,
      "Ġkitty": 4175,
      "rod": 4176,
      "Ġintrod": 4177,
      "Ġslippery": 4178,
      "Ġcheek": 4179,
      "Ġattention": 4180,
      "Ġneighbour": 4181,
      "Ġsheet": 4182,
      "Ġnews": 4183,
      "Ġskirt": 4184,
      "Ġtrail": 4185,
      "Ġsmells": 4186,
      "Ġfalling": 4187,
      "Ġperfectly": 4188,
      "Ġphoto": 4189,
      "Ġviolin": 4190,
      "eath": 4191,
      "gen": 4192,
      "Ġbur": 4193,
      "Ġpine": 4194,
      "Ġknot": 4195,
      "ĠJerry": 4196,
      "Ġchirp": 4197,
      "Ġquit": 4198,
      "ĠRu": 4199,
      "ĠRosie": 4200,
      "Ġmarried": 4201,
      "Ġbananas": 4202,
      "Ġsummer": 4203,
      "Ġlang": 4204,
      "Ġpage": 4205,
      "Ġlie": 4206,
      "Ġfirework": 4207,
      "Ġsweetheart": 4208,
      "Ġcrib": 4209,
      "Ġlangu": 4210,
      "Ġlime": 4211,
      "Ġonion": 4212,
      "Ġreve": 4213,
      "Ġarmchair": 4214,
      "Ġsprink": 4215,
      "Ġbelongs": 4216,
      "Ġcardboard": 4217,
      "Ġgolden": 4218,
      "Ġcabinet": 4219,
      "ait": 4220,
      "low": 4221,
      "men": 4222,
      "Ġsir": 4223,
      "aring": 4224,
      "Ġgro": 4225,
      "ories": 4226,
      "Ġshouldn": 4227,
      "Ġwool": 4228,
      "ĠSophie": 4229,
      "ĠWould": 4230,
      "ĠLee": 4231,
      "Ġtrave": 4232,
      "Ġsticky": 4233,
      "Ġpuddles": 4234,
      "Ġfields": 4235,
      "Ġtuna": 4236,
      "Ġchickens": 4237,
      "bul": 4238,
      "ĠSee": 4239,
      "stead": 4240,
      "Ġscolded": 4241,
      "inarian": 4242,
      "Ġswung": 4243,
      "Ġvide": 4244,
      "ÅĵYou": 4245,
      "eterinarian": 4246,
      "..": 4247,
      "Ġtherm": 4248,
      "Ġsoil": 4249,
      "Ġstraight": 4250,
      "Ġburned": 4251,
      "Ġavocado": 4252,
      "eve": 4253,
      "Ġherb": 4254,
      "Ġrot": 4255,
      "hero": 4256,
      "ometer": 4257,
      "Ġflies": 4258,
      "Ġveterinarian": 4259,
      "Ġprevent": 4260,
      "izes": 4261,
      "reeze": 4262,
      "Ġdisag": 4263,
      "Ġpirates": 4264,
      "Ġfisherman": 4265,
      "ween": 4266,
      "Ġnovel": 4267,
      "aud": 4268,
      "Ġoffer": 4269,
      "Ġshovel": 4270,
      "Ġcreated": 4271,
      "Ġpetals": 4272,
      "Ġjourn": 4273,
      "Ġimagination": 4274,
      "Daddy": 4275,
      "Ġsuperhero": 4276,
      "Ġbetween": 4277,
      "Ġmeeting": 4278,
      "Ġclassroom": 4279,
      "Ġglowing": 4280,
      "hic": 4281,
      "Ġplastic": 4282,
      "Ġtwink": 4283,
      "Ġopera": 4284,
      "Ġvehic": 4285,
      "Ġkingdom": 4286,
      "Ġmistakes": 4287,
      "Ġmemories": 4288,
      "Ġthermometer": 4289,
      "Ch": 4290,
      "Ġble": 4291,
      "Ġcell": 4292,
      "Ġpal": 4293,
      "unately": 4294,
      "Ġseeing": 4295,
      "Ġshoulder": 4296,
      "ĠKate": 4297,
      "anges": 4298,
      "Ġthrows": 4299,
      "Ġfishing": 4300,
      "aw": 4301,
      "lass": 4302,
      "Ġmeat": 4303,
      "Ġceiling": 4304,
      "Ġpassport": 4305,
      "Ġignored": 4306,
      "Ġjellyfish": 4307,
      "Ġslept": 4308,
      "ues": 4309,
      "Ġtax": 4310,
      "ĠBun": 4311,
      "Ġforgotten": 4312,
      "Ġcelebrated": 4313,
      "Ġradio": 4314,
      "Ġdoors": 4315,
      "ngth": 4316,
      "Ġteleph": 4317,
      "Ġjournal": 4318,
      "Next": 4319,
      "rs": 4320,
      "Ġoak": 4321,
      "Ġmakeup": 4322,
      "Ġheads": 4323,
      "Ġpresents": 4324,
      "Ġaccepted": 4325,
      "Ġtelephone": 4326,
      "Because": 4327,
      "arm": 4328,
      "Ġstro": 4329,
      "Ġallig": 4330,
      "Your": 4331,
      "agg": 4332,
      "Ġflame": 4333,
      "Ġvend": 4334,
      "ĠdonÃ¢": 4335,
      "Ġstrength": 4336,
      "Ġthrowing": 4337,
      "Ġpinch": 4338,
      "Today": 4339,
      "Ġinfant": 4340,
      "ents": 4341,
      "Ġvet": 4342,
      "Emma": 4343,
      "Ġfile": 4344,
      "chie": 4345,
      "Ġloop": 4346,
      "Ġswamp": 4347,
      "Ġambul": 4348,
      "Ġpoints": 4349,
      "Inside": 4350,
      "Together": 4351,
      "ĠTrue": 4352,
      "Ġapplaud": 4353,
      "Ġgrocer": 4354,
      "Ġtaxi": 4355,
      "Eventually": 4356,
      "drobe": 4357,
      "vision": 4358,
      "urch": 4359,
      "Ġalive": 4360,
      "Ġwriting": 4361,
      "Ġshouting": 4362,
      "Ġbaking": 4363,
      "Ġplanet": 4364,
      "Ġwardrobe": 4365,
      "Ġrubber": 4366,
      "te": 4367,
      "Ġcree": 4368,
      "ores": 4369,
      "Ġseas": 4370,
      "Ġworth": 4371,
      "Ġsung": 4372,
      "Ġcube": 4373,
      "Ġdiscu": 4374,
      "Ġsteam": 4375,
      "Ġwinter": 4376,
      "Ġlemonade": 4377,
      "achel": 4378,
      "Ġmagazine": 4379,
      "Ġpalace": 4380,
      "Ġcreek": 4381,
      "Ġwags": 4382,
      "Ġfle": 4383,
      "Ġitch": 4384,
      "bbie": 4385,
      "Ġshower": 4386,
      "ĠInstead": 4387,
      "Ġdiary": 4388,
      "Ġsquirrels": 4389,
      "Ġattach": 4390,
      "Ġfolder": 4391,
      "Ġhanging": 4392,
      "Ġtelevision": 4393,
      "Ġstrawberry": 4394,
      "bor": 4395,
      "ium": 4396,
      "Ġaut": 4397,
      "Ġstable": 4398,
      "Ġboot": 4399,
      "Ġquack": 4400,
      "Ġgreedy": 4401,
      "Ġfog": 4402,
      "ĠPapa": 4403,
      "ggy": 4404,
      "nam": 4405,
      "Ġinse": 4406,
      "ssible": 4407,
      "Ġflapped": 4408,
      "Ġparent": 4409,
      "Ġprepare": 4410,
      "ĠAb": 4411,
      "Ġhelper": 4412,
      "Ġknob": 4413,
      "ĠLilly": 4414,
      "Ġchalk": 4415,
      "Ġfollows": 4416,
      "Ġsailing": 4417,
      "Ġsurround": 4418,
      "Ġmystery": 4419,
      "Ġmedal": 4420,
      "Ġsprayed": 4421,
      "ito": 4422,
      "Ġpra": 4423,
      "icop": 4424,
      "Ġvac": 4425,
      "Ġornam": 4426,
      "Ġmoves": 4427,
      "ĠNext": 4428,
      "Ġdisappear": 4429,
      "Ġserve": 4430,
      "Ġhelicop": 4431,
      "Ġargue": 4432,
      "Ġalligator": 4433,
      "Ġambulance": 4434,
      "Ġhelicopter": 4435,
      "sit": 4436,
      "tress": 4437,
      "ĠHelp": 4438,
      "ĠBaby": 4439,
      "Ġgrin": 4440,
      "Ġbelow": 4441,
      "Ġsigns": 4442,
      "Ġmattress": 4443,
      "Ġharbor": 4444,
      "Ġwaving": 4445,
      "una": 4446,
      "ĠJess": 4447,
      "rosc": 4448,
      "Ġdressed": 4449,
      "Ġfreez": 4450,
      "Ġstud": 4451,
      "Ġeagerly": 4452,
      "ĠUn": 4453,
      "lasses": 4454,
      "Ġsunglasses": 4455,
      "ĠSu": 4456,
      "Ġknown": 4457,
      "ups": 4458,
      "Ġminute": 4459,
      "Ġmicrosc": 4460,
      "ÅĵItÃ¢": 4461,
      "Ġvendor": 4462,
      "ab": 4463,
      "lier": 4464,
      "Ġpopped": 4465,
      "Ġfiref": 4466,
      "Ġcherry": 4467,
      "Ġmicroscope": 4468,
      "case": 4469,
      "Ġwine": 4470,
      "ising": 4471,
      "imi": 4472,
      "igail": 4473,
      "Ġweigh": 4474,
      "Ġrequ": 4475,
      "Ġrooms": 4476,
      "Ġgrill": 4477,
      "Ġletting": 4478,
      "Ġfallen": 4479,
      "Ġapart": 4480,
      "ĠAnnie": 4481,
      "Ġfauc": 4482,
      "Ġpear": 4483,
      "Ġberry": 4484,
      "Ġrefre": 4485,
      "Ġcomplain": 4486,
      "Ġlanguage": 4487,
      "Did": 4488,
      "Ġlawn": 4489,
      "estig": 4490,
      "ĠCo": 4491,
      "elcome": 4492,
      "Ġblackboard": 4493,
      "Ġinvestig": 4494,
      "Ġeasily": 4495,
      "Ġwipe": 4496,
      "Ann": 4497,
      "mm": 4498,
      "Ġbreeze": 4499,
      "inky": 4500,
      "Ġheaded": 4501,
      "Ġquietly": 4502,
      "aggie": 4503,
      "Ġfaucet": 4504,
      "tain": 4505,
      "Ġsince": 4506,
      "Ġcared": 4507,
      "omob": 4508,
      "iday": 4509,
      "Ġthumb": 4510,
      "amb": 4511,
      "Ġcob": 4512,
      "Ġtaller": 4513,
      "Ġentered": 4514,
      "ĠGod": 4515,
      "Ġcrossed": 4516,
      "Ġwhisper": 4517,
      "Ġhappens": 4518,
      "Ġleak": 4519,
      "quito": 4520,
      "Ġpoked": 4521,
      "Ġsque": 4522,
      "Ġchairs": 4523,
      "Ġearlier": 4524,
      "Ġkisses": 4525,
      "Ġrelaxed": 4526,
      "Ġreverse": 4527,
      "Ġautomob": 4528,
      "Ġig": 4529,
      "Ġsuff": 4530,
      "Ġfought": 4531,
      "Ġpur": 4532,
      "atie": 4533,
      "Ġstad": 4534,
      "Ġmusician": 4535,
      "Ġregret": 4536,
      "Ġcrawling": 4537,
      "Ġimprove": 4538,
      "Ġexercise": 4539,
      "Ġigloo": 4540,
      "Ġstadium": 4541,
      "Ġwaste": 4542,
      "ĠIÃ¢": 4543,
      "Ġalarm": 4544,
      "Ġcaring": 4545,
      "Ġchurch": 4546,
      "asis": 4547,
      "Ġdelay": 4548,
      "Ġdresses": 4549,
      "Ġcrash": 4550,
      "Ġapron": 4551,
      "Ġsniffed": 4552,
      "Ġwaffle": 4553,
      "Ġvacation": 4554,
      "Ġrequest": 4555,
      "Ġwigg": 4556,
      "Ġlumber": 4557,
      "chor": 4558,
      "Ġcliff": 4559,
      "Ġfastest": 4560,
      "Ġbalan": 4561,
      "Ġolive": 4562,
      "Ġseparate": 4563,
      "Ġinvestigate": 4564,
      "liday": 4565,
      "web": 4566,
      "yer": 4567,
      "Ġsizes": 4568,
      "ĠTony": 4569,
      "Ġpoke": 4570,
      "Ġholiday": 4571,
      "Ġairpl": 4572,
      "Ġinsect": 4573,
      "'.": 4574,
      "Lisa": 4575,
      "Ġoasis": 4576,
      "Ġsaus": 4577,
      "ĠWho": 4578,
      "Ġvroom": 4579,
      "Ġsurprises": 4580,
      "Ġappro": 4581,
      "Ġsparkle": 4582,
      "Ġpuzzles": 4583,
      "Ġskills": 4584,
      "squito": 4585,
      "Ġcable": 4586,
      "uckily": 4587,
      "Ġmosquito": 4588,
      "Thanks": 4589,
      "Ġscrew": 4590,
      "orses": 4591,
      "Ġshrink": 4592,
      "Ġyogurt": 4593,
      "Ġaer": 4594,
      "ero": 4595,
      "Ġyield": 4596,
      "Ġreaches": 4597,
      "opl": 4598,
      "Ġlotion": 4599,
      "Ġamazement": 4600,
      "Ġdear": 4601,
      "Ġspots": 4602,
      "fortunately": 4603,
      "Ġbouncing": 4604,
      "Ġdestination": 4605,
      "Ġscattered": 4606,
      "Ġcobweb": 4607,
      "Ġaeropl": 4608,
      "iately": 4609,
      "ler": 4610,
      "right": 4611,
      "Ġtucked": 4612,
      "Ġhorses": 4613,
      "ety": 4614,
      "Ġisn": 4615,
      "mediately": 4616,
      "Ġincre": 4617,
      "Ġsupply": 4618,
      "Ġsplashing": 4619,
      "Ġlawyer": 4620,
      "Wait": 4621,
      "was": 4622,
      "Ġrake": 4623,
      "sters": 4624,
      "Ġoranges": 4625,
      "Ġfloat": 4626,
      "Ġmint": 4627,
      "Ġsafety": 4628,
      "Ġtrusted": 4629,
      "Ġdishwas": 4630,
      "Ġdishwasher": 4631,
      "mend": 4632,
      "oral": 4633,
      "Ġunif": 4634,
      "Ġhearts": 4635,
      "Ġmailman": 4636,
      "Ġcollected": 4637,
      "Ġflutter": 4638,
      "Ġyawned": 4639,
      "Ġvehicle": 4640,
      "ives": 4641,
      "Ġpit": 4642,
      "ommend": 4643,
      "ĠitÃ¢": 4644,
      "Ġanchor": 4645,
      "aces": 4646,
      "Ġblueberries": 4647,
      "Ġfloated": 4648,
      "Ġshrugged": 4649,
      "Ġshooting": 4650,
      "Ġsqueeze": 4651,
      "Ġbother": 4652,
      "Ġsaving": 4653,
      "Ġlaught": 4654,
      "Ġrabbits": 4655,
      "Ġcastles": 4656,
      "Ġrecommend": 4657,
      "Ġspending": 4658,
      "ĠBuzz": 4659,
      "Ġmuffin": 4660,
      "Ġautomobile": 4661,
      "Is": 4662,
      "nger": 4663,
      "Ġtut": 4664,
      "Ġtug": 4665,
      "inked": 4666,
      "icing": 4667,
      "place": 4668,
      "Ġpoppy": 4669,
      "ction": 4670,
      "Ġdemand": 4671,
      "ĠRe": 4672,
      "Ġchoice": 4673,
      "Ġexamine": 4674,
      "Ġachie": 4675,
      "omes": 4676,
      "Ġlicks": 4677,
      "raged": 4678,
      "Ġspade": 4679,
      "ops": 4680,
      "âĤ¬.": 4681,
      "Ġquiz": 4682,
      "Ġhurting": 4683,
      "Ġconf": 4684,
      "Ġsparkling": 4685,
      "Ġworms": 4686,
      "Ġcandles": 4687,
      "Ġexperience": 4688,
      "Ġribbon": 4689,
      "ĠJames": 4690,
      "Ġkneel": 4691,
      "Ġstruc": 4692,
      "Ġbookcase": 4693,
      "Ġfollowing": 4694,
      "Ġsqueezed": 4695,
      "Ġuniform": 4696,
      "Ġlaughter": 4697,
      "Ġstructure": 4698,
      "ĠBet": 4699,
      "ĠMimi": 4700,
      "Ġagree": 4701,
      "Ġeaten": 4702,
      "Ġburied": 4703,
      "Ġraz": 4704,
      "Ġremove": 4705,
      "Sammy": 4706,
      "Ġbumped": 4707,
      "Ġpenguin": 4708,
      "Ġpraised": 4709,
      "Ġsigh": 4710,
      "Ġmention": 4711,
      "Ġplates": 4712,
      "Ġbury": 4713,
      "ĠCharlie": 4714,
      "Ġbeans": 4715,
      "Ġinclud": 4716,
      "Ġvideo": 4717,
      "cakes": 4718,
      "Ġsings": 4719,
      "Ġtong": 4720,
      "Ġrise": 4721,
      "Ġplays": 4722,
      "Ġspear": 4723,
      "Ġsnap": 4724,
      "Ġchess": 4725,
      "Ġinstr": 4726,
      "Ġminer": 4727,
      "Ġfuel": 4728,
      "Ġflea": 4729,
      "nies": 4730,
      "sing": 4731,
      "Ġsimp": 4732,
      "Ġscooped": 4733,
      "Ġblinked": 4734,
      "Ġhills": 4735,
      "Ġtornado": 4736,
      "Yuck": 4737,
      "Ġwashing": 4738,
      "Ġequ": 4739,
      "Ġsnapped": 4740,
      "Ġunderstanding": 4741,
      "ĠOr": 4742,
      "Ġignore": 4743,
      "Ġringing": 4744,
      "Ġcaptain": 4745,
      "ival": 4746,
      "Ġbattery": 4747,
      "Ġsettled": 4748,
      "Ġdestroyed": 4749,
      "Ġrazor": 4750,
      "Ġdried": 4751,
      "Ġmall": 4752,
      "ionary": 4753,
      "Ġkeeping": 4754,
      "Ġideas": 4755,
      "Ġgrowled": 4756,
      "Ġblankets": 4757,
      "Ġappreciate": 4758,
      "ĠRuby": 4759,
      "Ġtoes": 4760,
      "Ġpalm": 4761,
      "ĠRachel": 4762,
      "Ġadmir": 4763,
      "ictionary": 4764,
      "ib": 4765,
      "Ġfest": 4766,
      "ĠHenry": 4767,
      "ĠMiss": 4768,
      "Ġmanage": 4769,
      "Ġwatches": 4770,
      "Ġglo": 4771,
      "Ġfireplace": 4772,
      "ĠKing": 4773,
      "Ġsits": 4774,
      "Ġenter": 4775,
      "Ġwandered": 4776,
      "ĠClara": 4777,
      "Ġsandcastle": 4778,
      "Ġaeroplane": 4779,
      "Will": 4780,
      "ived": 4781,
      "ĠTed": 4782,
      "Ġmyself": 4783,
      "omeday": 4784,
      "Ġlabel": 4785,
      "Ġbleed": 4786,
      "Peter": 4787,
      "apping": 4788,
      "Ġdictionary": 4789,
      "Ġport": 4790,
      "ĠHarry": 4791,
      "amber": 4792,
      "Ġbravely": 4793,
      "Ġcoats": 4794,
      "Ġmelted": 4795,
      "Ġtide": 4796,
      "Ġyucky": 4797,
      "alley": 4798,
      "Ġjunk": 4799,
      "ĠDanny": 4800,
      "Ġsetting": 4801,
      "Ġjewelry": 4802,
      "Ġstrawberries": 4803,
      "Ġyoga": 4804,
      "Ġoats": 4805,
      "Ġfreezer": 4806,
      "loe": 4807,
      "ring": 4808,
      "Ġtore": 4809,
      "ĠIts": 4810,
      "Ġscore": 4811,
      "Ġroot": 4812,
      "Ġclaws": 4813,
      "uggage": 4814,
      "Ġsneeze": 4815,
      "Ġstomach": 4816,
      "Ġtutor": 4817,
      "Ġluggage": 4818,
      "Ġpages": 4819,
      "Ġpride": 4820,
      "Ġtrade": 4821,
      "Ġclimbs": 4822,
      "Ġgifts": 4823,
      "With": 4824,
      "Ġsomeday": 4825,
      "bey": 4826,
      "ĠSpike": 4827,
      "Ġfloating": 4828,
      "Ġmoments": 4829,
      "Ġplanes": 4830,
      "Ġhits": 4831,
      "Ġvanished": 4832,
      "Ġscratch": 4833,
      "Ġairplane": 4834,
      "Fl": 4835,
      "Ġbeamed": 4836,
      "Ġprop": 4837,
      "Ġappear": 4838,
      "Mandy": 4839,
      "umble": 4840,
      "antly": 4841,
      "Ġbelieved": 4842,
      "Ġbeef": 4843,
      "Ġsub": 4844,
      "Ġrepeat": 4845,
      "Ġstruggling": 4846,
      "rise": 4847,
      "Ġga": 4848,
      "ĠIs": 4849,
      "Ġweap": 4850,
      "Ġblueberry": 4851,
      "Ġburning": 4852,
      "ĠBefore": 4853,
      "Ġtemple": 4854,
      "ah": 4855,
      "ls": 4856,
      "vet": 4857,
      "Ġdire": 4858,
      "Ġitem": 4859,
      "Ġchores": 4860,
      "Ġvalley": 4861,
      "Ġjogging": 4862,
      "emember": 4863,
      "Ġdrain": 4864,
      "Ġelephants": 4865,
      "Ġwhistling": 4866,
      "ĠSteve": 4867,
      "Ġweeks": 4868,
      "Ġtongue": 4869,
      "ĠTina": 4870,
      "ishing": 4871,
      "Ġgear": 4872,
      "Ġnation": 4873,
      "Ġshot": 4874,
      "Ġsport": 4875,
      "Ġimmediately": 4876,
      "Ġcalls": 4877,
      "Ġremain": 4878,
      "ission": 4879,
      "Ġcuddled": 4880,
      "Ġpermission": 4881,
      "Ġfestival": 4882,
      "Ġlily": 4883,
      "lend": 4884,
      "Ġhers": 4885,
      "Ġres": 4886,
      "Ġranch": 4887,
      "Ġchamber": 4888,
      "Ġpoison": 4889,
      "Ġsunrise": 4890,
      "Ġraise": 4891,
      "Ġcrunch": 4892,
      "Ġteaching": 4893,
      "Ġbathe": 4894,
      "house": 4895,
      "iers": 4896,
      "Ġhomes": 4897,
      "Ġpulling": 4898,
      "Ġsteak": 4899,
      "Ġpatiently": 4900,
      "Ġmarbles": 4901,
      "Ġbreathe": 4902,
      "Ġprovide": 4903,
      "Ġhesit": 4904,
      "ĠHave": 4905,
      "uture": 4906,
      "seek": 4907,
      "ĠEach": 4908,
      "aped": 4909,
      "Ġcalend": 4910,
      "Ġpeanuts": 4911,
      "ĠAbigail": 4912,
      "Ġcalendar": 4913,
      "'ve": 4914,
      "osed": 4915,
      "Ġfuture": 4916,
      "Ġstitch": 4917,
      "Ġjazz": 4918,
      "Ġspit": 4919,
      "Ġwarmth": 4920,
      "Ġpaused": 4921,
      "Ġbuckle": 4922,
      "Ġpastel": 4923,
      "Ġcollecting": 4924,
      "Ġticket": 4925,
      "ĠFreddy": 4926,
      "allow": 4927,
      "ipment": 4928,
      "Ġthrilled": 4929,
      "ĠGood": 4930,
      "Ġdifferen": 4931,
      "Ġhotel": 4932,
      "Ġprayed": 4933,
      "Ġapproached": 4934,
      "Ġgust": 4935,
      "Ġshed": 4936,
      "fume": 4937,
      "Ġalright": 4938,
      "Ġtease": 4939,
      "Ġwarning": 4940,
      "Ġencouraged": 4941,
      "Ġchirping": 4942,
      "Ġequipment": 4943,
      "Jen": 4944,
      "Mark": 4945,
      "Tweet": 4946,
      "Ġdaisy": 4947,
      "Ġbegged": 4948,
      "Ġsocks": 4949,
      "Ġshamp": 4950,
      "Ġcoal": 4951,
      "Ġskull": 4952,
      "Ġskipping": 4953,
      "Ġperfume": 4954,
      "Ġanswers": 4955,
      "Ġmissile": 4956,
      "Ġpanic": 4957,
      "Ġearthqu": 4958,
      "Ġpunish": 4959,
      "Ġinsisted": 4960,
      "Ġshampoo": 4961,
      "Ġcakes": 4962,
      "Ġnone": 4963,
      "Ġlick": 4964,
      "Ġrestore": 4965,
      "osity": 4966,
      "Ġsoldiers": 4967,
      "Ġtwisted": 4968,
      "mother": 4969,
      "These": 4970,
      "Ġmeowed": 4971,
      "Ġdoggy": 4972,
      "Ġhardly": 4973,
      "Ġguy": 4974,
      "Ġrespons": 4975,
      "Ġsolved": 4976,
      "Ġjewels": 4977,
      "Ġreceived": 4978,
      "Ġobserve": 4979,
      "Qu": 4980,
      "Welcome": 4981,
      "Ġlect": 4982,
      "Ġsore": 4983,
      "Ġevent": 4984,
      "Ġlic": 4985,
      "Ġsew": 4986,
      "Ġunite": 4987,
      "Ġreceive": 4988,
      "Ġbricks": 4989,
      "Ġrevealed": 4990,
      "Ġlecture": 4991,
      "Ouch": 4992,
      "fy": 4993,
      "Ġpist": 4994,
      "anna": 4995,
      "Ġbites": 4996,
      "Ġdeeper": 4997,
      "Ġordered": 4998,
      "Ġpistol": 4999,
      "act": 5000,
      "Ġbang": 5001,
      "Ġdigg": 5002,
      "Ġsty": 5003,
      "Ġfasc": 5004,
      "Ġcopper": 5005,
      "Ġcomfy": 5006,
      "Ġparts": 5007,
      "Ġmatches": 5008,
      "Ġpatterns": 5009,
      "Ġrecognized": 5010,
      "Ġrefreshed": 5011,
      "Ġemer": 5012,
      "Ġremained": 5013,
      "Ġworks": 5014,
      "Ġinvite": 5015,
      "ĠCoco": 5016,
      "Ġdigging": 5017,
      "Ġsip": 5018,
      "ities": 5019,
      "Ġrow": 5020,
      "Ġupstairs": 5021,
      "Ġjail": 5022,
      "Ġchir": 5023,
      "ases": 5024,
      "Ġblood": 5025,
      "Johnny": 5026,
      "Ġdrinking": 5027,
      "Ġwarn": 5028,
      "Ġsupposed": 5029,
      "Ġhate": 5030,
      "ĠJul": 5031,
      "Ġracing": 5032,
      "Ġmustache": 5033,
      "Ġdiscovery": 5034,
      "ÅĵThatÃ¢": 5035,
      "ĠPeople": 5036,
      "Ġdiscuss": 5037,
      "Ġgrinned": 5038,
      "Ġchirped": 5039,
      "All": 5040,
      "cc": 5041,
      "sity": 5042,
      "ari": 5043,
      "Ġrush": 5044,
      "Ġwherever": 5045,
      "Ġours": 5046,
      "Ġbookshe": 5047,
      "Ġcircus": 5048,
      "Ġurge": 5049,
      "Ġmeasured": 5050,
      "Ġsimple": 5051,
      "Ġfascin": 5052,
      "\",": 5053,
      "utty": 5054,
      "ĠMay": 5055,
      "Ġgirls": 5056,
      "Ġspill": 5057,
      "ĠLater": 5058,
      "Ġdecision": 5059,
      "Ġsunlight": 5060,
      "Ġmass": 5061,
      "Ġplanted": 5062,
      "Ġgrape": 5063,
      "Ġlicense": 5064,
      "bers": 5065,
      "eed": 5066,
      "riger": 5067,
      "Ġvel": 5068,
      "Ġbeg": 5069,
      "Ġeff": 5070,
      "aper": 5071,
      "Ġjogged": 5072,
      "Ġreplace": 5073,
      "Ġcrashed": 5074,
      "Ġpigs": 5075,
      "Ġapologize": 5076,
      "Ġrefriger": 5077,
      "Ġbuzzing": 5078,
      "Ġsuffer": 5079,
      "Ġearthquake": 5080,
      "Ġvelvet": 5081,
      "Ġrefrigerator": 5082,
      "Mmm": 5083,
      "Ġbak": 5084,
      "Ġobey": 5085,
      "allen": 5086,
      "ĠEveryday": 5087,
      "Ġglowed": 5088,
      "ĠPenny": 5089,
      "Ġwrites": 5090,
      "Ġactually": 5091,
      "Ġclearing": 5092,
      "oved": 5093,
      "Ġheat": 5094,
      "!\",": 5095,
      "Ġnewsp": 5096,
      "Ġraised": 5097,
      "ÅĵNo": 5098,
      "Ġbringing": 5099,
      "Ġeasier": 5100,
      "Ġselling": 5101,
      "Ġuniversity": 5102,
      "Ġweapon": 5103,
      "Ġdifference": 5104,
      "Sh": 5105,
      "tory": 5106,
      "ĠV": 5107,
      "Ġbill": 5108,
      "Ġhistory": 5109,
      "Ġchallen": 5110,
      "ĠJoy": 5111,
      "Ġrested": 5112,
      "Ġmarching": 5113,
      "Ġbathrobe": 5114,
      "Ġinvit": 5115,
      "Ġawe": 5116,
      "Ġsettle": 5117,
      "Ġcartoons": 5118,
      "Ġbookshelf": 5119,
      "Ġtoe": 5120,
      "oming": 5121,
      "Ġgain": 5122,
      "htray": 5123,
      "Ġashtray": 5124,
      "Ġworse": 5125,
      "Ġlaid": 5126,
      "Ġlets": 5127,
      "Ġturning": 5128,
      "Ġcontinue": 5129,
      "Ġsparkles": 5130,
      "Ġlands": 5131,
      "Before": 5132,
      "Ġdecorations": 5133,
      "Ġprepared": 5134,
      "kins": 5135,
      "Ġbes": 5136,
      "Ġfed": 5137,
      "enty": 5138,
      "Ġwhip": 5139,
      "Ġscur": 5140,
      "Ġflood": 5141,
      "ĠFo": 5142,
      "Ġstrang": 5143,
      "Ġremem": 5144,
      "ĠNot": 5145,
      "Ġcompany": 5146,
      "Ġspoons": 5147,
      "Ġfirefight": 5148,
      "ĠRemy": 5149,
      "Ġdare": 5150,
      "Ġslip": 5151,
      "Ġwatered": 5152,
      "Ġhated": 5153,
      "Ġagreement": 5154,
      "Ġbrick": 5155,
      "Ġmenu": 5156,
      "Ġremembers": 5157,
      "ging": 5158,
      "Ġsix": 5159,
      "Ġtremb": 5160,
      "bbled": 5161,
      "Ġproblems": 5162,
      "ude": 5163,
      "Ġsoared": 5164,
      "ĠMilly": 5165,
      "Ġfash": 5166,
      "Ġpossible": 5167,
      "izard": 5168,
      "Ġfamil": 5169,
      "Ġchewed": 5170,
      "irpy": 5171,
      "Ġadmiring": 5172,
      "Ġcrunchy": 5173,
      "Ġmitten": 5174,
      "Ġwanting": 5175,
      "Ġbrus": 5176,
      "Ġattached": 5177,
      "Ġexamined": 5178,
      "Ġtomatoes": 5179,
      "Ġdisagre": 5180,
      "Jake": 5181,
      "Would": 5182,
      "fied": 5183,
      "walk": 5184,
      "Ġweren": 5185,
      "indy": 5186,
      "Ġmonsters": 5187,
      "looking": 5188,
      "Ġsprinkles": 5189,
      "Ġbeside": 5190,
      "Moral": 5191,
      "Ġtip": 5192,
      "ĠLiz": 5193,
      "Ġslice": 5194,
      "Ġfixing": 5195,
      "Ġpracticing": 5196,
      "Ġvillag": 5197,
      "ÅĵIÃ¢": 5198,
      "Ġneighborhood": 5199,
      "Ġpupil": 5200,
      "Ġcurled": 5201,
      "Ġstrangers": 5202,
      "ha": 5203,
      "atch": 5204,
      "Ġrust": 5205,
      "Ġflap": 5206,
      "Ġoper": 5207,
      "Ġgrey": 5208,
      "Ġbrain": 5209,
      "Ġcub": 5210,
      "Ġtrapped": 5211,
      "Ġtracks": 5212,
      "ĠKatie": 5213,
      "Ġmouths": 5214,
      "Really": 5215,
      "Ġgrocery": 5216,
      "Ġsurrounded": 5217,
      "Ġeffort": 5218,
      "Ġnewspaper": 5219,
      "Ex": 5220,
      "cles": 5221,
      "hest": 5222,
      "Ġcal": 5223,
      "Ġonwards": 5224,
      "Ġweight": 5225,
      "ĠDan": 5226,
      "Ġpeel": 5227,
      "Ġwond": 5228,
      "Ġcontain": 5229,
      "Ġcutting": 5230,
      "Ġgloves": 5231,
      "Ro": 5232,
      "Ġwre": 5233,
      "Ġbun": 5234,
      "Ġhanger": 5235,
      "ĠLuna": 5236,
      "Ġflav": 5237,
      "Ġfreeze": 5238,
      "ĠChloe": 5239,
      "Emily": 5240,
      "nie": 5241,
      "xy": 5242,
      "Ġwaist": 5243,
      "Ġduring": 5244,
      "ays": 5245,
      "ora": 5246,
      "Ġspaces": 5247,
      "omething": 5248,
      "Ġperched": 5249,
      "Ġcomple": 5250,
      "Ġsidewalk": 5251,
      "Ġcollection": 5252,
      "Ġsafari": 5253,
      "Ġseats": 5254,
      "Ġguns": 5255,
      "Ġpinched": 5256,
      "Ġescaped": 5257,
      "Ġrides": 5258,
      "Ġmodel": 5259,
      "Ġsubway": 5260,
      "Ġvillagers": 5261,
      "Ġrhy": 5262,
      "asp": 5263,
      "Ġdownstairs": 5264,
      "Ġrained": 5265,
      "Ġtalent": 5266,
      "ĠNutty": 5267,
      "Ġbowed": 5268,
      "Ġbuildings": 5269,
      "Ġpaints": 5270,
      "Ġreminder": 5271,
      "Ġwisdom": 5272,
      "Ġargued": 5273,
      "ĠBubbles": 5274,
      "Ġcostumes": 5275,
      "Ġsausage": 5276,
      "Not": 5277,
      "ĠSund": 5278,
      "aded": 5279,
      "Ġwaits": 5280,
      "Ġdrinks": 5281,
      "Ġwhistled": 5282,
      "Ġintroduc": 5283,
      "Ġfashion": 5284,
      "uing": 5285,
      "Ġwizard": 5286,
      "Ġmister": 5287,
      "ĠBeth": 5288,
      "Ġmudd": 5289,
      "Ġgotten": 5290,
      "Ġzipped": 5291,
      "Ġfiremen": 5292,
      "Ġvisiting": 5293,
      "ĠFloppy": 5294,
      "Ġaccidents": 5295,
      "Ġsliding": 5296,
      "Ġtwigs": 5297,
      "Ġmemory": 5298,
      "Ġpermit": 5299,
      "Fluffy": 5300,
      "Le": 5301,
      "do": 5302,
      "dam": 5303,
      "neath": 5304,
      "Ġx": 5305,
      "Ġwid": 5306,
      "Ġpitch": 5307,
      "ĠHoppy": 5308,
      "adly": 5309,
      "ĠMaggie": 5310,
      "ĠFro": 5311,
      "Ġpeered": 5312,
      "ĠCat": 5313,
      "thm": 5314,
      "Ġzero": 5315,
      "Ġsteel": 5316,
      "Ġpetted": 5317,
      "Ġpancakes": 5318,
      "Ġprice": 5319,
      "Ġdinosaurs": 5320,
      "Ġmineral": 5321,
      "Ġbleeding": 5322,
      "Ġmuddy": 5323,
      "Ha": 5324,
      "Ġbones": 5325,
      "Ġweighed": 5326,
      "Ġpears": 5327,
      "Ġanytime": 5328,
      "Ġeagle": 5329,
      "Ġmountains": 5330,
      "Ġmeasuring": 5331,
      "Ġbunnies": 5332,
      "Ok": 5333,
      "Sometimes": 5334,
      "Yum": 5335,
      "ided": 5336,
      "Ġsting": 5337,
      "isten": 5338,
      "Ġpearl": 5339,
      "ÅĵThank": 5340,
      "Ġneighbors": 5341,
      "Ġfolded": 5342,
      "ĠChr": 5343,
      "Ġhurric": 5344,
      "reen": 5345,
      "Ġlamb": 5346,
      "Ġnavy": 5347,
      "Ġarea": 5348,
      "Ġbrid": 5349,
      "Ġbrushed": 5350,
      "Ġchef": 5351,
      "Ġvoices": 5352,
      "Ġshopping": 5353,
      "avi": 5354,
      "ĠOl": 5355,
      "Ġscratched": 5356,
      "Ġgrandmother": 5357,
      "Ġencourage": 5358,
      "Ġpadd": 5359,
      "Ġprune": 5360,
      "Ġbrings": 5361,
      "Ġmeow": 5362,
      "Ġdecides": 5363,
      "Ġbeds": 5364,
      "Ġswims": 5365,
      "Ġpets": 5366,
      "Ġbottles": 5367,
      "ĠSomeone": 5368,
      "Ġpillows": 5369,
      "Ġguessed": 5370,
      "Ġpedal": 5371,
      "Ġmassage": 5372,
      "Ġwonders": 5373,
      "!'": 5374,
      "ĠOnce": 5375,
      "Ġlung": 5376,
      "Ġripped": 5377,
      "riage": 5378,
      "Ġleather": 5379,
      "Ġsnowball": 5380,
      "Ġsecrets": 5381,
      "Ġcomforted": 5382,
      "Ġinvitation": 5383,
      "Ġhurricane": 5384,
      "cage": 5385,
      "mare": 5386,
      "son": 5387,
      "ides": 5388,
      "amie": 5389,
      "Ġhappiest": 5390,
      "ĠMat": 5391,
      "terday": 5392,
      "ica": 5393,
      "Ġbirdcage": 5394,
      "Ġrang": 5395,
      "Ġoverjoy": 5396,
      "ĠPoppy": 5397,
      "ĠLetÃ¢": 5398,
      "Ġcatching": 5399,
      "ĠChirpy": 5400,
      "ĠAnne": 5401,
      "Ġcuddle": 5402,
      "Ġornament": 5403,
      "ĠSuzy": 5404,
      "Ġfascinated": 5405,
      "Ġdisagreed": 5406,
      "Ġoverjoyed": 5407,
      "cious": 5408,
      "Ġscoop": 5409,
      "ĠLucky": 5410,
      "Ġstruck": 5411,
      "Ġglitter": 5412,
      "Ġunderground": 5413,
      "Ġstole": 5414,
      "Ġmarkers": 5415,
      "Ġzooming": 5416,
      "Ġwaffles": 5417,
      "Ready": 5418,
      "Ġinstruct": 5419,
      "Ġstyle": 5420,
      "Ġoperation": 5421,
      "xygen": 5422,
      "Ġrhythm": 5423,
      "Or": 5424,
      "ĠThese": 5425,
      "igz": 5426,
      "Ġpretti": 5427,
      "Ġsnail": 5428,
      "Ġkindly": 5429,
      "Ġpupp": 5430,
      "Ġbrand": 5431,
      "Ġnightmare": 5432,
      "Ġactiv": 5433,
      "ĠHowever": 5434,
      "Ġsneezed": 5435,
      "Ġrecognize": 5436,
      "Ġbridges": 5437,
      "Ġprettiest": 5438,
      "First": 5439,
      "Ġrele": 5440,
      "Ġexact": 5441,
      "Ġeveryday": 5442,
      "Ġblouse": 5443,
      "Ġvowed": 5444,
      "Ġteasp": 5445,
      "Ġrail": 5446,
      "Ġcones": 5447,
      "Ġtastes": 5448,
      "Ġdrift": 5449,
      "Ġsatis": 5450,
      "Ġwooden": 5451,
      "Ġdoctors": 5452,
      "laire": 5453,
      "Ġhurried": 5454,
      "Ġsucceeded": 5455,
      "Ġdisturbed": 5456,
      "Ġtravell": 5457,
      "ĠBetsy": 5458,
      "Ġteaspoon": 5459,
      "Susie": 5460,
      "mble": 5461,
      "oed": 5462,
      "Ġtugged": 5463,
      "Ġbare": 5464,
      "ĠMe": 5465,
      "Ġcontro": 5466,
      "Ġpiles": 5467,
      "Ġstudied": 5468,
      "Ġbillboard": 5469,
      "ĠSunday": 5470,
      "gers": 5471,
      "Ġoxygen": 5472,
      "etch": 5473,
      "Ġstruggled": 5474,
      "Ġimage": 5475,
      "Ġbye": 5476,
      "aster": 5477,
      "ÅĵLook": 5478,
      "Ġkeeps": 5479,
      "Ġcrept": 5480,
      "Ġtune": 5481,
      "Ġacorns": 5482,
      "Ġmuffins": 5483,
      "Ġlips": 5484,
      "ĠSharing": 5485,
      "Ġitems": 5486,
      "rin": 5487,
      "uke": 5488,
      "Ġlines": 5489,
      "Ġcaut": 5490,
      "ĠSomething": 5491,
      "Ġtremble": 5492,
      "anta": 5493,
      "Ġunderneath": 5494,
      "ÅĵDon": 5495,
      "Ġladyb": 5496,
      "Ġperfor": 5497,
      "Ġplanned": 5498,
      "Ġserved": 5499,
      "Ġbloomed": 5500,
      "Ġincluded": 5501,
      "Ġspaceship": 5502,
      "Happy": 5503,
      "len": 5504,
      "uzz": 5505,
      "imy": 5506,
      "Ġloving": 5507,
      "Ġofficer": 5508,
      "avid": 5509,
      "Ġsuitc": 5510,
      "Ġparked": 5511,
      "Ġscreams": 5512,
      "Ġtickets": 5513,
      "Ġsoaring": 5514,
      "Ġmentioned": 5515,
      "Ġresponsible": 5516,
      "Ġbegin": 5517,
      "ding": 5518,
      "Ġwagging": 5519,
      "Ġbeat": 5520,
      "Ġbeard": 5521,
      "ĠItÃ¢": 5522,
      "Ġsorting": 5523,
      "ÅĵWe": 5524,
      "Ġkeeper": 5525,
      "Ġcreation": 5526,
      "ffic": 5527,
      "Ġtraffic": 5528,
      "Ġlandsc": 5529,
      "Ġneighbourhood": 5530,
      "Ġcompleted": 5531,
      "Luckily": 5532,
      "Ġtonight": 5533,
      "ĠTiny": 5534,
      "Ġeight": 5535,
      "Ġeats": 5536,
      "Ġhonk": 5537,
      "Ġsights": 5538,
      "Ġshivered": 5539,
      "Ġpotatoes": 5540,
      "Ġolives": 5541,
      "Dave": 5542,
      "Rex": 5543,
      "Remember": 5544,
      "Ġbend": 5545,
      "Ġdied": 5546,
      "Ġgained": 5547,
      "Ġcuriosity": 5548,
      "Ġemergen": 5549,
      "Ġscurried": 5550,
      "Ġintroduced": 5551,
      "Ġinstructions": 5552,
      "Ġvent": 5553,
      "Ġprecious": 5554,
      "izing": 5555,
      "Ġpaintings": 5556,
      "Andy": 5557,
      "Ġdecorated": 5558,
      "Ġuniverse": 5559,
      ".'": 5560,
      "George": 5561,
      "Ġnicer": 5562,
      "Ġago": 5563,
      "Ġwhatever": 5564,
      "Ġrealize": 5565,
      "Ġsteep": 5566,
      "ĠJenna": 5567,
      "Ġaccom": 5568,
      "Ġmachines": 5569,
      "Ġmovies": 5570,
      "Ġcompetition": 5571,
      "Ġshadows": 5572,
      "Ġprunes": 5573,
      "Ġexactly": 5574,
      "Ġann": 5575,
      "Ġrocked": 5576,
      "Ġdraws": 5577,
      "Ġguest": 5578,
      "Ġprotected": 5579,
      "Ġsolut": 5580,
      "uctantly": 5581,
      "igzag": 5582,
      "Ġlandscape": 5583,
      "ux": 5584,
      "zen": 5585,
      "Ġsadness": 5586,
      "Ġslapped": 5587,
      "Ġowned": 5588,
      "ĠRa": 5589,
      "Ġbeha": 5590,
      "Ġprinter": 5591,
      "Ġfrosting": 5592,
      "Ġbeneath": 5593,
      "Ġpowers": 5594,
      "Ġintroduce": 5595,
      "lowly": 5596,
      "Ġproperly": 5597,
      "Ġwreck": 5598,
      "uxu": 5599,
      "Mar": 5600,
      "bies": 5601,
      "Ġbank": 5602,
      "ĠSunny": 5603,
      "Ġinch": 5604,
      "bert": 5605,
      "ĠJosh": 5606,
      "Ġshoulders": 5607,
      "Ġyelling": 5608,
      "Ġcontest": 5609,
      "Ġpouring": 5610,
      "Ġlemons": 5611,
      "Ġlibrarian": 5612,
      "Ġstealing": 5613,
      "âĤ¬âĢĿ": 5614,
      "Ġrubbing": 5615,
      "Ġpenguins": 5616,
      "Ġreleased": 5617,
      "Ye": 5618,
      "ales": 5619,
      "Ġluxu": 5620,
      "ĠTw": 5621,
      "Ġweb": 5622,
      "Ġknelt": 5623,
      "ĠRob": 5624,
      "Ġruin": 5625,
      "Ġbabies": 5626,
      "Ġsisters": 5627,
      "iggy": 5628,
      "Ġmixing": 5629,
      "Ġkeys": 5630,
      "ĠOllie": 5631,
      "Ġgathering": 5632,
      "Ġtwirling": 5633,
      "Ġsilence": 5634,
      "Ġurged": 5635,
      "fit": 5636,
      "hins": 5637,
      "rr": 5638,
      "ashed": 5639,
      "Ġstruggle": 5640,
      "Ġpurred": 5641,
      "Ġcontrol": 5642,
      "omas": 5643,
      "Ġtheirs": 5644,
      "Ġsorted": 5645,
      "Ġforgi": 5646,
      "Joey": 5647,
      "Ġfrozen": 5648,
      "Ġreluctantly": 5649,
      "Ġunlocked": 5650,
      "Ġcrackers": 5651,
      "Ġfireworks": 5652,
      "Ġbarely": 5653,
      "Ġaccompl": 5654,
      "mel": 5655,
      "Ġsides": 5656,
      "Ġmice": 5657,
      "ishes": 5658,
      "Ġsoak": 5659,
      "ĠBir": 5660,
      "Ġshock": 5661,
      "Ġoutdo": 5662,
      "Ġexit": 5663,
      "Ġbudge": 5664,
      "ĠCar": 5665,
      "Ġdragged": 5666,
      "Ġcrumb": 5667,
      "Ġmuscles": 5668,
      "Ġspiders": 5669,
      "Ġpunished": 5670,
      "Ġstripes": 5671,
      "Ġchallenge": 5672,
      "Teddy": 5673,
      "iar": 5674,
      "Ġdam": 5675,
      "Ġloose": 5676,
      "Ġoutfit": 5677,
      "ĠAn": 5678,
      "ÅĵCan": 5679,
      "Ġpastels": 5680,
      "Ġbouncy": 5681,
      "Ġdolphins": 5682,
      "ĠFrank": 5683,
      "Ġrepeated": 5684,
      "Ġachieve": 5685,
      "zing": 5686,
      "Ġ1": 5687,
      "ĠHop": 5688,
      "ppers": 5689,
      "Ġranger": 5690,
      "agull": 5691,
      "ĠFirst": 5692,
      "Ġopin": 5693,
      "thank": 5694,
      "though": 5695,
      "Ġwaiter": 5696,
      "Ġbreaking": 5697,
      "Ġprinted": 5698,
      "Ġwinning": 5699,
      "Ġpockets": 5700,
      "Ġexpect": 5701,
      "Ġexpected": 5702,
      "Ġroads": 5703,
      "Ġroaring": 5704,
      "Ġfigured": 5705,
      "ĠZoe": 5706,
      "Ġemergency": 5707,
      "rance": 5708,
      "Ġthro": 5709,
      "Ġlied": 5710,
      "Ġchases": 5711,
      "Ġbecoming": 5712,
      "bbing": 5713,
      "Ġbuckets": 5714,
      "Ġmission": 5715,
      "ĠStop": 5716,
      "Ġpoliceman": 5717,
      "uesday": 5718,
      "Ġbrushes": 5719,
      "Ġthroat": 5720,
      "ien": 5721,
      "shing": 5722,
      "Ġsi": 5723,
      "edding": 5724,
      "ĠTuesday": 5725,
      "ĠBig": 5726,
      "Ġseagull": 5727,
      "Ġclick": 5728,
      "ĠDid": 5729,
      "Ġpeaches": 5730,
      "Ġslimy": 5731,
      "ĠletÃ¢": 5732,
      "Ġwondering": 5733,
      "Ġplanets": 5734,
      "Ġentire": 5735,
      "Ġstirring": 5736,
      "Ġscreaming": 5737,
      "Ġclaps": 5738,
      "Ġdiscovering": 5739,
      "Ġcamping": 5740,
      "Ġcrowd": 5741,
      "ĠUncle": 5742,
      "Kitty": 5743,
      "pected": 5744,
      "Ġwest": 5745,
      "Ġtour": 5746,
      "Ġpies": 5747,
      "ĠLike": 5748,
      "Ġsnugg": 5749,
      "Ġsitu": 5750,
      "Ġstaring": 5751,
      "Ġstretching": 5752,
      "Ġsneaked": 5753,
      "Ġapplauded": 5754,
      "Ġincrease": 5755,
      "Ġguys": 5756,
      "ÅĵDonÃ¢": 5757,
      "Bella": 5758,
      "Un": 5759,
      "expected": 5760,
      "ĠJan": 5761,
      "Ġhomework": 5762,
      "Ġhowever": 5763,
      "ĠCindy": 5764,
      "Ġunexpected": 5765,
      "Ġseesaw": 5766,
      "Ġacted": 5767,
      "Ġspraying": 5768,
      "Ġcountryside": 5769,
      "Ġbalancing": 5770,
      "Ġsiren": 5771,
      "die": 5772,
      "zie": 5773,
      "Ġfart": 5774,
      "itely": 5775,
      "Ġda": 5776,
      "lee": 5777,
      "Ġworries": 5778,
      "Ġgoodnight": 5779,
      "Ġtouching": 5780,
      "Ġhighest": 5781,
      "Ġgiggling": 5782,
      "Goodbye": 5783,
      "ĠAlways": 5784,
      "Ġconfident": 5785,
      "Ġtrembling": 5786,
      "Ġcautious": 5787,
      "Ġsuitcase": 5788,
      "Ġoutdoors": 5789,
      "James": 5790,
      "Mr": 5791,
      "Pete": 5792,
      "bric": 5793,
      "jam": 5794,
      "Ġboo": 5795,
      "ern": 5796,
      "Ġheel": 5797,
      "Ġmittens": 5798,
      "ĠSanta": 5799,
      "Ġallow": 5800,
      "Ġfabric": 5801,
      "Ġteasing": 5802,
      "Ġbroom": 5803,
      "Ġourselves": 5804,
      "ults": 5805,
      "Ġmarriage": 5806,
      "Ġpassing": 5807,
      "Ġscru": 5808,
      "Ġleader": 5809,
      "ĠUnfortunately": 5810,
      "Ġdemanded": 5811,
      "Ġsighs": 5812,
      "Ġladybug": 5813,
      "jamas": 5814,
      "hell": 5815,
      "Ġcape": 5816,
      "ĠTilly": 5817,
      "Ġplenty": 5818,
      "Ġscra": 5819,
      "Ġmatching": 5820,
      "Ġrainbows": 5821,
      "Ġentrance": 5822,
      "Ġsupplies": 5823,
      "Ġshivering": 5824,
      "Ġnails": 5825,
      "Ġdirection": 5826,
      "annah": 5827,
      "Ġluxury": 5828,
      "Ella": 5829,
      "Henry": 5830,
      "Mike": 5831,
      "Mittens": 5832,
      "Ġtext": 5833,
      "vers": 5834,
      "Ġripe": 5835,
      "Ġstare": 5836,
      "Ġrelease": 5837,
      "inda": 5838,
      "Ġflat": 5839,
      "Ġvict": 5840,
      "ĠDavid": 5841,
      "Ġgrant": 5842,
      "ĠGr": 5843,
      "Ġsweets": 5844,
      "Ġbaked": 5845,
      "ulu": 5846,
      "Ġreaching": 5847,
      "Ġwinner": 5848,
      "Ġcompletely": 5849,
      "ĠJulie": 5850,
      "Ġsatisfied": 5851,
      "Ġsolution": 5852,
      "dies": 5853,
      "Ġmater": 5854,
      "essie": 5855,
      "aky": 5856,
      "Ġgreet": 5857,
      "Ġrestored": 5858,
      "Ġcuts": 5859,
      "...": 5860,
      "Ġtwinkling": 5861,
      "Ġtexture": 5862,
      "Ġmateri": 5863,
      "Ah": 5864,
      "Lola": 5865,
      "nes": 5866,
      "Ġti": 5867,
      "Ġwedding": 5868,
      "Ġheav": 5869,
      "ĠBy": 5870,
      "ĠLizzy": 5871,
      "ason": 5872,
      "Ġpoking": 5873,
      "ĠPip": 5874,
      "aced": 5875,
      "Ġsweeties": 5876,
      "Ġproject": 5877,
      "Ġcurly": 5878,
      "Ġsurface": 5879,
      "Ġcurtains": 5880,
      "Ġseason": 5881,
      "ĠJessie": 5882,
      "Ġbalanced": 5883,
      "Ġresult": 5884,
      "ody": 5885,
      "vin": 5886,
      "ĠYes": 5887,
      "Ġbunch": 5888,
      "Ġfara": 5889,
      "Ġge": 5890,
      "Ġeast": 5891,
      "ĠJon": 5892,
      "aren": 5893,
      "Ġsnakes": 5894,
      "ÅĵHello": 5895,
      "Ġwritten": 5896,
      "Ġpajamas": 5897,
      "Ġsinger": 5898,
      "ĠDolly": 5899,
      "Ġrolls": 5900,
      "Ġpastries": 5901,
      "Ġinterest": 5902,
      "Ġrescued": 5903,
      "Ġloaded": 5904,
      "cuse": 5905,
      "lowers": 5906,
      "Ġquacked": 5907,
      "Ġfaraway": 5908,
      "uly": 5909,
      "Ġwound": 5910,
      "ednes": 5911,
      "ĠSlowly": 5912,
      "ĠMad": 5913,
      "ĠJe": 5914,
      "Ġcomm": 5915,
      "Ġforehead": 5916,
      "Ġunited": 5917,
      "acob": 5918,
      "Ġzigzag": 5919,
      "Ġpolishing": 5920,
      "Ġmarker": 5921,
      "ĠOut": 5922,
      "Ġprayer": 5923,
      "Ġhorns": 5924,
      "Ġmelting": 5925,
      "Ġrecorded": 5926,
      "Ġstudying": 5927,
      "Ġtasks": 5928,
      "Ġpaddle": 5929,
      "Ġinclude": 5930,
      "Ġburrow": 5931,
      "Ġdisagree": 5932,
      "Ġkneeled": 5933,
      "Leo": 5934,
      "ednesday": 5935,
      "Paul": 5936,
      "ĠĠčĊ": 5937,
      "ĠQu": 5938,
      "Ġboom": 5939,
      "ĠWednesday": 5940,
      "Ġflames": 5941,
      "Ġstrings": 5942,
      "ÅĵThis": 5943,
      "Ġcreating": 5944,
      "Ġmatched": 5945,
      "Ġdeser": 5946,
      "Ġtrips": 5947,
      "Ġcrabs": 5948,
      "Ġmagnets": 5949,
      "Ġshelves": 5950,
      "Excuse": 5951,
      "eep": 5952,
      "ĠSure": 5953,
      "Ġstair": 5954,
      "icorn": 5955,
      "Ġcatches": 5956,
      "Ġslap": 5957,
      "Ġbravery": 5958,
      "Ġunicorn": 5959,
      "Ġtowels": 5960,
      "Ġkicking": 5961,
      "Ġcheering": 5962,
      "ophia": 5963,
      "Ġvanish": 5964,
      "Ġdusty": 5965,
      "Ġphotos": 5966,
      "Bun": 5967,
      "pe": 5968,
      "Ëľ": 5969,
      "Ġwink": 5970,
      "Ġdent": 5971,
      "ena": 5972,
      "igi": 5973,
      "une": 5974,
      "Ġstartled": 5975,
      "âĤ¬Ëľ": 5976,
      "Ġchat": 5977,
      "Ġblink": 5978,
      "Ġpebbles": 5979,
      "ledge": 5980,
      "Ġbedtime": 5981,
      "Ġreplaced": 5982,
      "Ġsingle": 5983,
      "Ġdragons": 5984,
      "Ġmotion": 5985,
      "However": 5986,
      "Ġpencils": 5987,
      "Ġbumps": 5988,
      "Ġstamps": 5989,
      "Ġweeping": 5990,
      "Ġitchy": 5991,
      "Ġornaments": 5992,
      "Ġgazed": 5993,
      "Ġventured": 5994,
      "Fred": 5995,
      "go": 5996,
      "hee": 5997,
      "Ġsway": 5998,
      "Ġfetch": 5999,
      "irm": 6000,
      "ĠBird": 6001,
      "ĠBye": 6002,
      "ĠAdam": 6003,
      "Ġhugging": 6004,
      "Ġknowledge": 6005,
      "Ġtruly": 6006,
      "Ġworker": 6007,
      "Ġcracked": 6008,
      "Ġbuying": 6009,
      "Ġhealed": 6010,
      "Ġmisses": 6011,
      "Ġarguing": 6012,
      "Annie": 6013,
      "Ġregretted": 6014,
      "Alex": 6015,
      "cers": 6016,
      "reat": 6017,
      "ayla": 6018,
      "ĠFor": 6019,
      "ĠClaire": 6020,
      "Ġremoved": 6021,
      "ÅĵMommy": 6022,
      "Ġwrist": 6023,
      "Ġfoods": 6024,
      "Ġtractor": 6025,
      "Ġrainco": 6026,
      "Ġsticking": 6027,
      "Ġusually": 6028,
      "Ġprints": 6029,
      "Ġdrives": 6030,
      "ĠwasnÃ¢": 6031,
      "Ġpolished": 6032,
      "angled": 6033,
      "Ġpatience": 6034,
      "Ġrelief": 6035,
      "Ġrockets": 6036,
      "Ġtickle": 6037,
      "Ġcovers": 6038,
      "Ġsandcastles": 6039,
      "Ġactivities": 6040,
      "Ġfarther": 6041,
      "Ġraincoat": 6042,
      "Fr": 6043,
      "Mrs": 6044,
      "boo": 6045,
      "cope": 6046,
      "iles": 6047,
      "Ġrumble": 6048,
      "Ġstern": 6049,
      "Ġshined": 6050,
      "Ġcans": 6051,
      "ĠJamie": 6052,
      "Ġroots": 6053,
      "ĠPipp": 6054,
      "Ġexplorers": 6055,
      "Ġstolen": 6056,
      "Ġusual": 6057,
      "ĠNick": 6058,
      "Ġopening": 6059,
      "Afterwards": 6060,
      "Ġgrowling": 6061,
      "hog": 6062,
      "Ġchewing": 6063,
      "Ġflags": 6064,
      "Ġpeeking": 6065,
      "Grandpa": 6066,
      "Ġstrike": 6067,
      "Ġobserved": 6068,
      "ĠChrist": 6069,
      "ĠRabbit": 6070,
      "melia": 6071,
      "lings": 6072,
      "you": 6073,
      "int": 6074,
      "Ġcent": 6075,
      "Ġpout": 6076,
      "ĠSadly": 6077,
      "ords": 6078,
      "ĠLarry": 6079,
      "usted": 6080,
      "ÅĵOh": 6081,
      "Ġsmiley": 6082,
      "Ġuses": 6083,
      "Ġyells": 6084,
      "Ġpartic": 6085,
      "Ġthreat": 6086,
      "Ġcoloured": 6087,
      "Ġglasses": 6088,
      "Ġtraveled": 6089,
      "Yeah": 6090,
      "Millie": 6091,
      "Sandy": 6092,
      "Ġbumpy": 6093,
      "Ġrisk": 6094,
      "Ġyouth": 6095,
      "Ġspike": 6096,
      "opes": 6097,
      "Ġfault": 6098,
      "Ġchips": 6099,
      "Ġfoc": 6100,
      "Ġsnat": 6101,
      "Ġrocking": 6102,
      "Ġruler": 6103,
      "Ġgrowl": 6104,
      "Ġcelebration": 6105,
      "Ġherbs": 6106,
      "abel": 6107,
      "Ġfirefighters": 6108,
      "ĠMatt": 6109,
      "mas": 6110,
      "per": 6111,
      "rious": 6112,
      "indr": 6113,
      "Ġchuck": 6114,
      "asm": 6115,
      "ĠCarl": 6116,
      "Ġraindr": 6117,
      "ÅĵWhy": 6118,
      "Ġstaying": 6119,
      "oys": 6120,
      "Ġowners": 6121,
      "Ġteaches": 6122,
      "Ġdesert": 6123,
      "Ġvalued": 6124,
      "Ġtickled": 6125,
      "Ġsilent": 6126,
      "Ġfreed": 6127,
      "Ġseems": 6128,
      "Ġsquares": 6129,
      "Ġrubs": 6130,
      "Ġhedgehog": 6131,
      "Ġimproved": 6132,
      "ĠRover": 6133,
      "Ġseashell": 6134,
      "Ġsquealed": 6135,
      "Ġcrumbs": 6136,
      "Ġvictory": 6137,
      "jo": 6138,
      "Ġdipped": 6139,
      "oni": 6140,
      "Ġsobbed": 6141,
      "ĠChe": 6142,
      "ĠPl": 6143,
      "ĠPinky": 6144,
      "Ġlistens": 6145,
      "ĠThomas": 6146,
      "Ġrule": 6147,
      "Ġyesterday": 6148,
      "Ġcreamy": 6149,
      "Ġpatted": 6150,
      "Ġfuzzy": 6151,
      "Ġtemper": 6152,
      "Ġparticular": 6153,
      "Sophie": 6154,
      "Ġtodd": 6155,
      "Ġfirm": 6156,
      "Ġden": 6157,
      "aty": 6158,
      "Ġbead": 6159,
      "Ġexha": 6160,
      "ĠWater": 6161,
      "Ġlap": 6162,
      "ĠLuckily": 6163,
      "ĠLinda": 6164,
      "ĠLulu": 6165,
      "bbly": 6166,
      "Ġpeppers": 6167,
      "Ġcoloring": 6168,
      "ĠGreen": 6169,
      "Ġcaused": 6170,
      "ĠLeave": 6171,
      "Ġadding": 6172,
      "Ġwandering": 6173,
      "Ġwiggled": 6174,
      "Ġfamilies": 6175,
      "ĠChristmas": 6176,
      "Bobby": 6177,
      "Cl": 6178,
      "Polly": 6179,
      "oh": 6180,
      "hello": 6181,
      "Ġcash": 6182,
      "iding": 6183,
      "ences": 6184,
      "opsy": 6185,
      "ĠGigi": 6186,
      "Ġworkers": 6187,
      "ĠEmmy": 6188,
      "Ġwinked": 6189,
      "Ġsafer": 6190,
      "Ġreveal": 6191,
      "Ġtwinkle": 6192,
      "Ġgaze": 6193,
      "Ġopinion": 6194,
      "Ġsituation": 6195,
      "Ġraindrops": 6196,
      "pite": 6197,
      "Ġast": 6198,
      "Ġcous": 6199,
      "Ġdared": 6200,
      "Ġpause": 6201,
      "isies": 6202,
      "esome": 6203,
      "Ġech": 6204,
      "ĠBoth": 6205,
      "ĠMany": 6206,
      "Ġnect": 6207,
      "ĠcanÃ¢": 6208,
      "Ġfaced": 6209,
      "Ġchoo": 6210,
      "Ġneedles": 6211,
      "itches": 6212,
      "Ġresting": 6213,
      "Ġarrive": 6214,
      "Ġagrees": 6215,
      "Ġpacking": 6216,
      "Ġactions": 6217,
      "ĠOwl": 6218,
      "Bobo": 6219,
      "Grace": 6220,
      "Ġunpacked": 6221,
      "ĠJessica": 6222,
      "Ġdaisies": 6223,
      "Ġexhausted": 6224,
      "Ġnectar": 6225,
      "Fine": 6226,
      "Uh": 6227,
      "band": 6228,
      "fl": 6229,
      "Ġtim": 6230,
      "Ġaff": 6231,
      "Ġlined": 6232,
      "Ġcough": 6233,
      "Ġwasted": 6234,
      "ley": 6235,
      "ĠyouÃ¢": 6236,
      "Ġgoals": 6237,
      "urry": 6238,
      "Ġmane": 6239,
      "Ġswooped": 6240,
      "ĠFriend": 6241,
      "Ġdeli": 6242,
      "ĠNan": 6243,
      "oline": 6244,
      "Ġbowls": 6245,
      "Ġinviting": 6246,
      "Ġpleasure": 6247,
      "Ġnetwork": 6248,
      "Ġawesome": 6249,
      "Ġjackets": 6250,
      "Ġdelivered": 6251,
      "Ġscrubbed": 6252,
      "Ġtemperature": 6253,
      "Days": 6254,
      "Rose": 6255,
      "njoy": 6256,
      "Ġcause": 6257,
      "immer": 6258,
      "Ġliqu": 6259,
      "Ġrobb": 6260,
      "ongo": 6261,
      "ĠSpark": 6262,
      "Ġbehavi": 6263,
      "Ġreads": 6264,
      "Ġdarkness": 6265,
      "Ġfairies": 6266,
      "Ġmarked": 6267,
      "Ġsmarter": 6268,
      "Ġwarri": 6269,
      "Ġspeaking": 6270,
      "Ġblooming": 6271,
      "Ġcopy": 6272,
      "Ġhallway": 6273,
      "Ġgroceries": 6274,
      "Ġliquid": 6275,
      "udy": 6276,
      "Ġwow": 6277,
      "eds": 6278,
      "Ġhi": 6279,
      "Ġpiggy": 6280,
      "ĠSus": 6281,
      "ĠHappy": 6282,
      "Ġsoaked": 6283,
      "Ġwears": 6284,
      "Ġscales": 6285,
      "Ġfever": 6286,
      "ĠLuke": 6287,
      "Ġknees": 6288,
      "Ġimportance": 6289,
      "uggles": 6290,
      "Ġprincesses": 6291,
      "Ġreply": 6292,
      "Ġblows": 6293,
      "ĠSnuggles": 6294,
      "Ġwires": 6295,
      "Ġachieved": 6296,
      "ĠFollow": 6297,
      "Ġcalmed": 6298,
      "Ġdrifted": 6299,
      "Ġcautiously": 6300,
      "Ġsnatched": 6301,
      "Maggie": 6302,
      "Ġty": 6303,
      "Ġstem": 6304,
      "Ġseven": 6305,
      "ĠJones": 6306,
      "Ġsomebody": 6307,
      "ĠEls": 6308,
      "Ġyourselves": 6309,
      "ĠwouldnÃ¢": 6310,
      "Ġcowb": 6311,
      "izzie": 6312,
      "Ġleading": 6313,
      "Ġribbons": 6314,
      "Ġrecommended": 6315,
      "Ġinterested": 6316,
      "Ġchuckled": 6317,
      "Ġbeads": 6318,
      "Ġdelivery": 6319,
      "ossible": 6320,
      "Ġsense": 6321,
      "Ġbars": 6322,
      "Ġglee": 6323,
      "Ġspong": 6324,
      "ĠJay": 6325,
      "Ġswirl": 6326,
      "Ġtwin": 6327,
      "emma": 6328,
      "Ġimpossible": 6329,
      "boat": 6330,
      "Ġpots": 6331,
      "ĠOw": 6332,
      "Ġmasks": 6333,
      "ÅĵWhatÃ¢": 6334,
      "Ġfluttered": 6335,
      "Ġbakery": 6336,
      "Ġsnowballs": 6337,
      "Ġdentist": 6338,
      "mies": 6339,
      "Ġmes": 6340,
      "ĠTess": 6341,
      "igning": 6342,
      "Ġrip": 6343,
      "Ġkites": 6344,
      "Ġlosing": 6345,
      "Ġremote": 6346,
      "Ġbadge": 6347,
      "Ġdreamt": 6348,
      "Ġnaps": 6349,
      "Ġnapkins": 6350,
      "Ġorganizing": 6351,
      "Ġwipes": 6352,
      "ĠZoom": 6353,
      "Ġknights": 6354,
      "Ġhelmets": 6355,
      "Ġtempt": 6356,
      "Ġstroll": 6357,
      "Ġstroked": 6358,
      "Ġpaddled": 6359,
      "Ġforgiven": 6360,
      "Ġmesmer": 6361,
      "Harry": 6362,
      "ik": 6363,
      "Ġlimes": 6364,
      "ĠAbbie": 6365,
      "ĠElly": 6366,
      "usband": 6367,
      "Ġlearns": 6368,
      "Ġjoking": 6369,
      "Ġcloses": 6370,
      "Ġfroze": 6371,
      "ĠJohnson": 6372,
      "Ġpointy": 6373,
      "Ġsecure": 6374,
      "ĠBeing": 6375,
      "Ġawake": 6376,
      "Ġpedals": 6377,
      "Ġbaker": 6378,
      "Ġannoy": 6379,
      "Unfortunately": 6380,
      "Ġcashier": 6381,
      "mallow": 6382,
      "Ġopp": 6383,
      "arling": 6384,
      "Ġbelly": 6385,
      "Ġcolored": 6386,
      "Ġhider": 6387,
      "Ġprotecting": 6388,
      "Ġpassen": 6389,
      "Ġsplashes": 6390,
      "Ġdetermination": 6391,
      "Ġseeker": 6392,
      "Ġfilling": 6393,
      "Ġradishes": 6394,
      "arshmallow": 6395,
      "Ġstomped": 6396,
      "ĠSuzie": 6397,
      "Tweety": 6398,
      "Ab": 6399,
      "ĠY": 6400,
      "ĠSorry": 6401,
      "Ġinsp": 6402,
      "ades": 6403,
      "ĠAmelia": 6404,
      "Ġnoses": 6405,
      "ĠMomo": 6406,
      "ĠPut": 6407,
      "Ġdeal": 6408,
      "Ġstorekeeper": 6409,
      "ĠDoggy": 6410,
      "Ġtallest": 6411,
      "Ġmuscle": 6412,
      "Ġtails": 6413,
      "Ġsigned": 6414,
      "Ġscaring": 6415,
      "Ġscarves": 6416,
      "Ġcandies": 6417,
      "Ġleaning": 6418,
      "Ġgiraff": 6419,
      "Ġobjects": 6420,
      "Ġsneaky": 6421,
      "Ġaccomplish": 6422,
      "Ġtipt": 6423,
      "Ġwarrior": 6424,
      "Ġsponge": 6425,
      "va": 6426,
      "Ġtig": 6427,
      "Ġaud": 6428,
      "Ġsib": 6429,
      "Ġhusband": 6430,
      "ouch": 6431,
      "iled": 6432,
      "endy": 6433,
      "Ġrising": 6434,
      "alph": 6435,
      "ĠJacob": 6436,
      "?\",": 6437,
      "Ġbacked": 6438,
      "Ġleap": 6439,
      "Ġmeals": 6440,
      "ĠWatch": 6441,
      "Ġeverybody": 6442,
      "ishy": 6443,
      "Ġcreations": 6444,
      "Ġunf": 6445,
      "ĠGet": 6446,
      "Ġafterwards": 6447,
      "Ġhealth": 6448,
      "brush": 6449,
      "Ġmiles": 6450,
      "Ġzookeeper": 6451,
      "Ġrecording": 6452,
      "Ġarrows": 6453,
      "Ġartist": 6454,
      "Ġcheeks": 6455,
      "Charlie": 6456,
      "Ġsnuggle": 6457,
      "Ġgiraffes": 6458,
      "Ġtigers": 6459,
      "For": 6460,
      "tuce": 6461,
      "vest": 6462,
      "ans": 6463,
      "ĠBongo": 6464,
      "itted": 6465,
      "ĠMira": 6466,
      "Ġaren": 6467,
      "icky": 6468,
      "Ġflapping": 6469,
      "Ġchip": 6470,
      "Ġlettuce": 6471,
      "Ġdancers": 6472,
      "Ġconn": 6473,
      "Ġconcer": 6474,
      "ĠPam": 6475,
      "ths": 6476,
      "Ġarr": 6477,
      "Ġsteer": 6478,
      "Ġparties": 6479,
      "Ġhides": 6480,
      "Ġmarks": 6481,
      "Ġdiving": 6482,
      "Ġsalty": 6483,
      "Ġweekend": 6484,
      "Ġgracefully": 6485,
      "Ġavoid": 6486,
      "Ġhesitated": 6487,
      "ĠGoodbye": 6488,
      "Ġtravelled": 6489,
      "ĠJeff": 6490,
      "Fin": 6491,
      "Ġcust": 6492,
      "Ġdots": 6493,
      "ilo": 6494,
      "ann": 6495,
      "Ġthird": 6496,
      "Ġyum": 6497,
      "Ġfeast": 6498,
      "ĠLou": 6499,
      "aura": 6500,
      "Ġslices": 6501,
      "Ġsnuck": 6502,
      "ĠCra": 6503,
      "Ġracc": 6504,
      "ĠPrin": 6505,
      "Ġhandsome": 6506,
      "Ġdef": 6507,
      "Ġtricked": 6508,
      "Ġsailboat": 6509,
      "ĠFlopsy": 6510,
      "Ġpotion": 6511,
      "ments": 6512,
      "Ġburst": 6513,
      "Ġdiscussed": 6514,
      "Ġhesitant": 6515,
      "ĠNothing": 6516,
      "Ġrusty": 6517,
      "Ġtalented": 6518,
      "Ġtoddler": 6519,
      "Ġafford": 6520,
      "Ġcustom": 6521,
      "Ġraccoon": 6522,
      "aa": 6523,
      "ners": 6524,
      "uzzy": 6525,
      "Ġtangled": 6526,
      "Ġhissed": 6527,
      "ĠMa": 6528,
      "icked": 6529,
      "ĠFar": 6530,
      "Ġslam": 6531,
      "Ġdrawn": 6532,
      "Ġcorners": 6533,
      "Ġspoonful": 6534,
      "Ġpans": 6535,
      "Ġrequested": 6536,
      "ĠBetty": 6537,
      "Ġdirect": 6538,
      "Ġlungs": 6539,
      "Ġsiblings": 6540,
      "An": 6541,
      "Katie": 6542,
      "zes": 6543,
      "Ġcott": 6544,
      "Ġdie": 6545,
      "ids": 6546,
      "llen": 6547,
      "Ġneither": 6548,
      "Ġbackwards": 6549,
      "ept": 6550,
      "Ġflight": 6551,
      "ĠEarth": 6552,
      "Ġswept": 6553,
      "Ġhandful": 6554,
      "ĠRobby": 6555,
      "Ġprinting": 6556,
      "Ġpretends": 6557,
      "Ġdarker": 6558,
      "Ġsnowmen": 6559,
      "Ġmixture": 6560,
      "Ġembarrass": 6561,
      "Ġfolding": 6562,
      "Ġpumpkins": 6563,
      "Ġlogs": 6564,
      "Ġwraps": 6565,
      "ivity": 6566,
      "Ġsausages": 6567,
      "Ġfluttering": 6568,
      "Maria": 6569,
      "Ġtiptoed": 6570,
      "Boo": 6571,
      "ded": 6572,
      "eal": 6573,
      "pit": 6574,
      "Ġlower": 6575,
      "ility": 6576,
      "Ġrus": 6577,
      "ickey": 6578,
      "Ġchop": 6579,
      "ĠEnjoy": 6580,
      "Ġgrandp": 6581,
      "Ġgrabbing": 6582,
      "ĠJacky": 6583,
      "Ġadult": 6584,
      "Those": 6585,
      "ĠPo": 6586,
      "Ġdrawers": 6587,
      "ĠKayla": 6588,
      "Ġgasp": 6589,
      "ĠZoomy": 6590,
      "Meow": 6591,
      "ĠBuzzy": 6592,
      "Ġsuperheroes": 6593,
      "Ġinsects": 6594,
      "Ġwidened": 6595,
      "ĠPippin": 6596,
      "Ġcousin": 6597,
      "Ġaudience": 6598,
      "Great": 6599,
      "Ru": 6600,
      "come": 6601,
      "Ġwins": 6602,
      "Ġocc": 6603,
      "Ġbeam": 6604,
      "ĠBinky": 6605,
      "ĠAunt": 6606,
      "Ġfears": 6607,
      "Ġworn": 6608,
      "Ġcond": 6609,
      "Ġwilling": 6610,
      "aker": 6611,
      "Ġwindy": 6612,
      "Ġgrassy": 6613,
      "Ġrivers": 6614,
      "umbling": 6615,
      "Ġstarfish": 6616,
      "Ġclowns": 6617,
      "Ġrefle": 6618,
      "Ġbasement": 6619,
      "Ġexperien": 6620,
      "Ġfamiliar": 6621,
      "Ġflavor": 6622,
      "Ġchefs": 6623,
      "Ġperforman": 6624,
      "Ġbeginning": 6625,
      "Ew": 6626,
      "abby": 6627,
      "cited": 6628,
      "no": 6629,
      "Ġgross": 6630,
      "ĠSophia": 6631,
      "sequ": 6632,
      "Ġrefu": 6633,
      "ĠMon": 6634,
      "ĠJazz": 6635,
      "iece": 6636,
      "Ġdads": 6637,
      "Ġbully": 6638,
      "Ġconsequ": 6639,
      "Ġuns": 6640,
      "Ġsnowfl": 6641,
      "Ġcreativity": 6642,
      "Ġforgetting": 6643,
      "Ġwrapping": 6644,
      "Ġcelebrating": 6645,
      "Toby": 6646,
      "Ġpaying": 6647,
      "Ġknocks": 6648,
      "Ġcomplained": 6649,
      "ĠRobert": 6650,
      "Ġsprinkled": 6651,
      "Ġfirefighter": 6652,
      "Roar": 6653,
      "ĠOlive": 6654,
      "Ġheavier": 6655,
      "Ġpouted": 6656,
      "ĠPrincess": 6657,
      "Ġgrandpare": 6658,
      "Run": 6659,
      "Whee": 6660,
      "Ġmerry": 6661,
      "ĠHoot": 6662,
      "Ġropes": 6663,
      "ados": 6664,
      "Ġwept": 6665,
      "Ġreass": 6666,
      "ĠMel": 6667,
      "Ġbodies": 6668,
      "ĠJune": 6669,
      "using": 6670,
      "ĠJojo": 6671,
      "Ġstays": 6672,
      "obody": 6673,
      "retty": 6674,
      "Ġkicks": 6675,
      "Ġshrinking": 6676,
      "Ġrecipe": 6677,
      "Ġsource": 6678,
      "Ġindeed": 6679,
      "Ġforks": 6680,
      "Ġscratches": 6681,
      "Ġavocados": 6682,
      "Ġseparated": 6683,
      "Ġprovided": 6684,
      "Ġsurroundings": 6685,
      "Shh": 6686,
      "ĠFox": 6687,
      "Ġpuppies": 6688,
      "Bad": 6689,
      "Danny": 6690,
      "Ellie": 6691,
      "Kate": 6692,
      "tle": 6693,
      "Ġwadd": 6694,
      "ĠHannah": 6695,
      "Ġrings": 6696,
      "Ġspikes": 6697,
      "ĠLizzie": 6698,
      "aula": 6699,
      "ĠEverybody": 6700,
      "iley": 6701,
      "Ġdollhouse": 6702,
      "Ġcrew": 6703,
      "ĠGary": 6704,
      "Ġbeloved": 6705,
      "ĠKeep": 6706,
      "Ġattack": 6707,
      "ĠWithout": 6708,
      "ĠBluey": 6709,
      "Ġtricky": 6710,
      "Ġseconds": 6711,
      "Ġhumans": 6712,
      "Ġpresses": 6713,
      "Ġincluding": 6714,
      "Ġgranted": 6715,
      "ĠFriends": 6716,
      "Ġconsequences": 6717,
      "?'": 6718,
      "Bl": 6719,
      "Milly": 6720,
      "Nemo": 6721,
      "cake": 6722,
      "fall": 6723,
      "wk": 6724,
      "Ġhour": 6725,
      "Ġdarling": 6726,
      "Ġmaster": 6727,
      "Ġnine": 6728,
      "Ġhawk": 6729,
      "Ġstool": 6730,
      "Ġplucked": 6731,
      "Ġgobbled": 6732,
      "ĠAbby": 6733,
      "Ġglued": 6734,
      "Ġdresser": 6735,
      "ĠNina": 6736,
      "athan": 6737,
      "Ġmagician": 6738,
      "Ġtalks": 6739,
      "Ġplans": 6740,
      "Ġneighbours": 6741,
      "Ġhoriz": 6742,
      "Ġwishing": 6743,
      "Ġedges": 6744,
      "Ġtunnels": 6745,
      "Ġgems": 6746,
      "Ġdelivering": 6747,
      "Ġneatly": 6748,
      "Ġinstrum": 6749,
      "Ġbehaved": 6750,
      "ĠGranny": 6751,
      "Ġdeserve": 6752,
      "Ġtimer": 6753,
      "Fo": 6754,
      "Wh": 6755,
      "urious": 6756,
      "Ġtouc": 6757,
      "ĠSpl": 6758,
      "ĠBessie": 6759,
      "Ġteased": 6760,
      "Ġamong": 6761,
      "Ġruining": 6762,
      "ĠJaney": 6763,
      "Ġscrews": 6764,
      "Ġsailors": 6765,
      "Ġplanning": 6766,
      "ĠStay": 6767,
      "Ġcrossing": 6768,
      "Ġlollipops": 6769,
      "Ġsymbols": 6770,
      "Ġbuzzed": 6771,
      "Ġwarnings": 6772,
      "Ġswimsuit": 6773,
      "Ġmaterials": 6774,
      "ĠSusan": 6775,
      "Ġaccomplishment": 6776,
      "Ġrushing": 6777,
      "Ġperformance": 6778,
      "Ġhorizon": 6779,
      "Nina": 6780,
      "Some": 6781,
      "Tw": 6782,
      "rig": 6783,
      "the": 6784,
      "Ġhitting": 6785,
      "Ġmarshmallow": 6786,
      "Ġpens": 6787,
      "Ġonward": 6788,
      "choo": 6789,
      "Ġspices": 6790,
      "Ġhelpers": 6791,
      "Ġfact": 6792,
      "Ġage": 6793,
      "ĠLi": 6794,
      "ĠListen": 6795,
      "Ġflas": 6796,
      "ÅĵDo": 6797,
      "Ġremembering": 6798,
      "Ġamount": 6799,
      "Ġblocking": 6800,
      "ĠOur": 6801,
      "Ġpaths": 6802,
      "Ġdrums": 6803,
      "ĠZara": 6804,
      "Ġdesigns": 6805,
      "Ġmushrooms": 6806,
      "ronaut": 6807,
      "Ġcobwebs": 6808,
      "Ġastronaut": 6809,
      "Ġechoed": 6810,
      "Ġdirections": 6811,
      "Ġtouches": 6812,
      "Dan": 6813,
      "Even": 6814,
      "Ġmer": 6815,
      "atur": 6816,
      "Ġsan": 6817,
      "Ġstung": 6818,
      "Ġonions": 6819,
      "Ġplayers": 6820,
      "step": 6821,
      "Ġleast": 6822,
      "Ġbru": 6823,
      "Ġteles": 6824,
      "Ġraces": 6825,
      "Ġstrongest": 6826,
      "ĠRemember": 6827,
      "Ġchoices": 6828,
      "Ġbaskets": 6829,
      "Ġforgets": 6830,
      "Ġpeacefully": 6831,
      "Ġmatters": 6832,
      "Ġtested": 6833,
      "Ġresisted": 6834,
      "ĠRobbie": 6835,
      "ÅĵYouÃ¢": 6836,
      "ably": 6837,
      "Ġwiggle": 6838,
      "Ġdamage": 6839,
      "Ġscraped": 6840,
      "Ruby": 6841,
      "Ġmarshmallows": 6842,
      "Ġtelescope": 6843,
      "Pe": 6844,
      "Time": 6845,
      "Tina": 6846,
      "fire": 6847,
      "tier": 6848,
      "ĠQ": 6849,
      "Ġcor": 6850,
      "ĠSqu": 6851,
      "ĠSque": 6852,
      "rip": 6853,
      "Ġyounger": 6854,
      "ntil": 6855,
      "ĠWell": 6856,
      "ĠEl": 6857,
      "Ġvines": 6858,
      "Ġprettier": 6859,
      "ÅĵWow": 6860,
      "ÅĵMy": 6861,
      "Ġconvers": 6862,
      "Ġgrowls": 6863,
      "Ġbaths": 6864,
      "Ġimagining": 6865,
      "Ġhonked": 6866,
      "Ġgenie": 6867,
      "Ġpoems": 6868,
      "Ġminerals": 6869,
      "Ġrustling": 6870,
      "ĠTwo": 6871,
      "Ġgreeted": 6872,
      "Ġpassengers": 6873,
      "Ġoccas": 6874,
      "Ġsank": 6875,
      "During": 6876,
      "Kim": 6877,
      "dges": 6878,
      "iel": 6879,
      "now": 6880,
      "Ġtuck": 6881,
      "ition": 6882,
      "Ġmast": 6883,
      "Ġmunch": 6884,
      "aying": 6885,
      "Ġstitches": 6886,
      "Ġneare": 6887,
      "ĠJudy": 6888,
      "Ġscient": 6889,
      "Ġadults": 6890,
      "Ġache": 6891,
      "Ġnearly": 6892,
      "Ġcuriously": 6893,
      "Ġrespond": 6894,
      "Ġimages": 6895,
      "ĠStitch": 6896,
      "Ġfeeding": 6897,
      "Ġvanilla": 6898,
      "Ġpraying": 6899,
      "Ġborrowed": 6900,
      "artha": 6901,
      "Ġcushions": 6902,
      "manda": 6903,
      "Ġcomplaining": 6904,
      "Ġincreased": 6905,
      "ĠFrog": 6906,
      "Ġbehaving": 6907,
      "Ġcommun": 6908,
      "immering": 6909,
      "Ġbehavior": 6910,
      "Ġmesmerized": 6911,
      "ĠFarmer": 6912,
      "Ġunsure": 6913,
      "Ġscientist": 6914,
      "By": 6915,
      "Ducky": 6916,
      "May": 6917,
      "Mad": 6918,
      "aired": 6919,
      "ky": 6920,
      "lves": 6921,
      "Ġcoral": 6922,
      "ĠTara": 6923,
      "Ġsale": 6924,
      "Ġplaytime": 6925,
      "Ġnotes": 6926,
      "allowed": 6927,
      "ĠWendy": 6928,
      "ĠLena": 6929,
      "Ġswallowed": 6930,
      "ueen": 6931,
      "Ġtramp": 6932,
      "Ġtwice": 6933,
      "Ġwobbly": 6934,
      "Ġdances": 6935,
      "Ġzipping": 6936,
      "ĠAsh": 6937,
      "Ġjoyful": 6938,
      "Ġstands": 6939,
      "Ġdrivers": 6940,
      "Ġhopeful": 6941,
      "Ġrepaired": 6942,
      "Ġsunflowers": 6943,
      "Ġenthusi": 6944,
      "Ġrewarded": 6945,
      "Ġcenter": 6946,
      "rigued": 6947,
      "Ġtrampoline": 6948,
      "Have": 6949,
      "Our": 6950,
      "Oops": 6951,
      "Ġcoup": 6952,
      "Ġpours": 6953,
      "Ġoh": 6954,
      "Ġnibb": 6955,
      "ĠSc": 6956,
      "Ġnoon": 6957,
      "Ġscen": 6958,
      "Ġcoc": 6959,
      "Ġflown": 6960,
      "ĠEx": 6961,
      "Ġswords": 6962,
      "Ġtreehouse": 6963,
      "Ġtrot": 6964,
      "Ġbraver": 6965,
      "Ġwobble": 6966,
      "Ġwobbled": 6967,
      "ÅĵHi": 6968,
      "ÅĵWell": 6969,
      "Ġdropping": 6970,
      "Ġhearing": 6971,
      "attered": 6972,
      "Ġhealing": 6973,
      "Ġaction": 6974,
      "Ġspreading": 6975,
      "ĠMikey": 6976,
      "ĠFroggy": 6977,
      "ĠBirthday": 6978,
      "Ġgeese": 6979,
      "Ġarranged": 6980,
      "Ġenthusiasm": 6981,
      "Ġcouple": 6982,
      "dri": 6983,
      "ippy": 6984,
      "weed": 6985,
      "yes": 6986,
      "initely": 6987,
      "itched": 6988,
      "itude": 6989,
      "Ġdet": 6990,
      "atul": 6991,
      "Ġnood": 6992,
      "Ġease": 6993,
      "ĠMouse": 6994,
      "ĠMilo": 6995,
      "ĠMickey": 6996,
      "idey": 6997,
      "Ġjugg": 6998,
      "Ġspins": 6999,
      "Ġblast": 7000,
      "ĠFuzzy": 7001,
      "Ġpecked": 7002,
      "Ġslips": 7003,
      "iona": 7004,
      "Ġfinal": 7005,
      "Ġfinishing": 7006,
      "ĠPr": 7007,
      "acy": 7008,
      "Ġwarmer": 7009,
      "Ġsandpit": 7010,
      "Ġlighter": 7011,
      "Ġslower": 7012,
      "Ġelf": 7013,
      "anging": 7014,
      "Ġprove": 7015,
      "Ġbeeh": 7016,
      "ĠThanks": 7017,
      "Ġwiping": 7018,
      "Ġheroes": 7019,
      "Ġencourag": 7020,
      "Ġtriangles": 7021,
      "Ġrefreshing": 7022,
      "Ġtravelling": 7023,
      "Ġguests": 7024,
      "Ġ10": 7025,
      "ĠQuack": 7026,
      "ĠQueen": 7027,
      "--": 7028,
      "Like": 7029,
      "bell": 7030,
      "bird": 7031,
      "Ġ2": 7032,
      "Ġaimed": 7033,
      "Ġsadd": 7034,
      "ĠSmo": 7035,
      "imon": 7036,
      "Ġthorn": 7037,
      "ĠHolly": 7038,
      "veral": 7039,
      "Ġplain": 7040,
      "adie": 7041,
      "Ġreason": 7042,
      "ĠMabel": 7043,
      "Ġseveral": 7044,
      "ĠLaura": 7045,
      "Ġflips": 7046,
      "Ġposs": 7047,
      "Ġexplo": 7048,
      "Ġoffic": 7049,
      "ÅĵMom": 7050,
      "ÅĵCome": 7051,
      "ÅĵNow": 7052,
      "Ġthrown": 7053,
      "Ġdefe": 7054,
      "ĠNobody": 7055,
      "Ġsteady": 7056,
      "Ġpennies": 7057,
      "Ġseaweed": 7058,
      "Ġlifting": 7059,
      "Ġacting": 7060,
      "Ġshirts": 7061,
      "ertain": 7062,
      "ĠAlthough": 7063,
      "Ġantic": 7064,
      "Ġexamining": 7065,
      "Ġseller": 7066,
      "Ġawo": 7067,
      "ĠUnder": 7068,
      "Ġcampfire": 7069,
      "Ġoysters": 7070,
      "Ġbreathed": 7071,
      "Ġvideos": 7072,
      "Ġfirefly": 7073,
      "Ġyielded": 7074,
      "Ġfocused": 7075,
      "ĠElsa": 7076,
      "Ġdefinitely": 7077,
      "Follow": 7078,
      "Br": 7079,
      "Lilly": 7080,
      "Pat": 7081,
      "Tr": 7082,
      "Yummy": 7083,
      "ears": 7084,
      "yond": 7085,
      "Ġsy": 7086,
      "Ġfaded": 7087,
      "ĠSun": 7088,
      "anes": 7089,
      "Ġbeyond": 7090,
      "Ġstain": 7091,
      "rie": 7092,
      "stick": 7093,
      "Ġscamp": 7094,
      "Ġchos": 7095,
      "Ġpeck": 7096,
      "Ġheading": 7097,
      "Ġsquishy": 7098,
      "ĠThose": 7099,
      "Ġbows": 7100,
      "Ġpolitely": 7101,
      "Ġvisitor": 7102,
      "Ġcupcakes": 7103,
      "Ġchopped": 7104,
      "Ġcausing": 7105,
      "Ġexpress": 7106,
      "Ġlifts": 7107,
      "Steve": 7108,
      "illiam": 7109,
      "Ġthud": 7110,
      "years": 7111,
      "Ġcuddly": 7112,
      "Ġproper": 7113,
      "Ġsports": 7114,
      "Ġfreedom": 7115,
      "Ġsnowflakes": 7116,
      "Ġnoodles": 7117,
      "Ġbeehive": 7118,
      "Ġchosen": 7119,
      "aven": 7120,
      "bro": 7121,
      "cher": 7122,
      "ratul": 7123,
      "while": 7124,
      "Ġdaring": 7125,
      "inger": 7126,
      "Ġsofter": 7127,
      "str": 7128,
      "unched": 7129,
      "ently": 7130,
      "Ġshown": 7131,
      "Ġroars": 7132,
      "ongratul": 7133,
      "Ġwhose": 7134,
      "ĠFire": 7135,
      "Ġtwenty": 7136,
      "ĠSpidey": 7137,
      "ĠRain": 7138,
      "Ġwarmly": 7139,
      "Ġthroughout": 7140,
      "ĠwonÃ¢": 7141,
      "Ġdived": 7142,
      "ĠAlong": 7143,
      "Ġnervously": 7144,
      "Ġtwisting": 7145,
      "Ġdiamonds": 7146,
      "Ġtoaster": 7147,
      "Ġsniffs": 7148,
      "Ġsneezing": 7149,
      "Ġsurfboard": 7150,
      "Ġstacked": 7151,
      "Ġinsisting": 7152,
      "ĠAbi": 7153,
      "Ġpupils": 7154,
      "Ġflavors": 7155,
      "Ġrobber": 7156,
      "Ġcowboy": 7157,
      "Ġslammed": 7158,
      "Car": 7159,
      "Miss": 7160,
      "Sadly": 7161,
      "Woof": 7162,
      "cl": 7163,
      "mered": 7164,
      "Ġaim": 7165,
      "ido": 7166,
      "onies": 7167,
      "Ġinj": 7168,
      "utter": 7169,
      "ĠBo": 7170,
      "ĠBoun": 7171,
      "ĠJax": 7172,
      "Ġcharge": 7173,
      "Ġintrigued": 7174,
      "Ġovercome": 7175,
      "Ġpuff": 7176,
      "Ġexplorer": 7177,
      "Ġstopping": 7178,
      "Ġwrink": 7179,
      "ĠGemma": 7180,
      "Ġtables": 7181,
      "ĠKaren": 7182,
      "otten": 7183,
      "Ġbelongings": 7184,
      "Ġmailed": 7185,
      "Ġdriveway": 7186,
      "Ġignoring": 7187,
      "Ġdecorating": 7188,
      "Ġwhispers": 7189,
      "Ġtwisty": 7190,
      "Ġstreamers": 7191,
      "Ġdesigned": 7192,
      "Ġgrandson": 7193,
      "Ġstatues": 7194,
      "Ġperforming": 7195,
      "Ġlending": 7196,
      "Ġtwinkled": 7197,
      "Ġloops": 7198,
      "Ġwhispering": 7199,
      "Ġsuffered": 7200,
      "Ġlicking": 7201,
      "Ġsewed": 7202,
      "ĠSparky": 7203,
      "iki": 7204,
      "Ġgrandparents": 7205,
      "Blue": 7206,
      "Ġawoke": 7207,
      "Jerry": 7208,
      "Su": 7209,
      "cter": 7210,
      "upt": 7211,
      "yan": 7212,
      "Ġfant": 7213,
      "Ġdot": 7214,
      "Ġmate": 7215,
      "Ġponies": 7216,
      "Ġrotten": 7217,
      "Ġplayroom": 7218,
      "Ġshoo": 7219,
      "Ġroses": 7220,
      "Ġcoach": 7221,
      "Ġcosy": 7222,
      "Ġprob": 7223,
      "Ġgoodies": 7224,
      "Ġsled": 7225,
      "Ġbeautifully": 7226,
      "Ġdollars": 7227,
      "Ġunw": 7228,
      "Ġforests": 7229,
      "ĠRavi": 7230,
      "Ġbelts": 7231,
      "uffin": 7232,
      "Ġunderstands": 7233,
      "meal": 7234,
      "Ġjoining": 7235,
      "Ġfits": 7236,
      "Ġcalmly": 7237,
      "Ġleads": 7238,
      "ĠZero": 7239,
      "Ġswans": 7240,
      "Ġoatmeal": 7241,
      "Ġsurrendered": 7242,
      "Ġquarreling": 7243,
      "Ġnovels": 7244,
      "Ġresults": 7245,
      "Ġpunishment": 7246,
      "Ġtrembled": 7247,
      "Ġwider": 7248,
      "Ġreflection": 7249,
      "ĠSquirrel": 7250,
      "ĠSqueaky": 7251,
      "Ġanticip": 7252,
      "Ġscampered": 7253,
      "Ġfantastic": 7254,
      "Ġprobably": 7255,
      "Adam": 7256,
      "Surpr": 7257,
      "ael": 7258,
      "eel": 7259,
      "rup": 7260,
      "sm": 7261,
      "sers": 7262,
      "whe": 7263,
      "Ġtiss": 7264,
      "Ġtying": 7265,
      "Ġgap": 7266,
      "Ġnapping": 7267,
      "anwhile": 7268,
      "iment": 7269,
      "onse": 7270,
      "rier": 7271,
      "ĠBee": 7272,
      "Ġmanag": 7273,
      "ĠWally": 7274,
      "Ġchara": 7275,
      "ĠDr": 7276,
      "Ġslither": 7277,
      "Ġwaterfall": 7278,
      "Ġfins": 7279,
      "Ġcraft": 7280,
      "Ġcolder": 7281,
      "ichael": 7282,
      "Ġfoxes": 7283,
      "Ġshops": 7284,
      "ounced": 7285,
      "Ġresponse": 7286,
      "Ġpicnics": 7287,
      "Ġappreciated": 7288,
      "Ġconfl": 7289,
      "ĠJulia": 7290,
      "ĠChris": 7291,
      "Ġperformed": 7292,
      "rrr": 7293,
      "ĠBirdy": 7294,
      "Frank": 7295,
      "Ġrisks": 7296,
      "Ġforgiveness": 7297,
      "Ġconnected": 7298,
      "Ġmerma": 7299,
      "broken": 7300,
      "Ġcharacter": 7301,
      "Baby": 7302,
      "Jul": 7303,
      "Listen": 7304,
      "Very": 7305,
      "crow": 7306,
      "mates": 7307,
      "Ġais": 7308,
      "its": 7309,
      "Ġcertain": 7310,
      "ilted": 7311,
      "Ġgest": 7312,
      "Ġni": 7313,
      "ĠSk": 7314,
      "ĠSw": 7315,
      "cky": 7316,
      "child": 7317,
      "ĠMartha": 7318,
      "Ġaside": 7319,
      "Ġscored": 7320,
      "ĠWin": 7321,
      "ĠLove": 7322,
      "Ġposter": 7323,
      "Ġposit": 7324,
      "Ġtweet": 7325,
      "Ġhanding": 7326,
      "Ġgardener": 7327,
      "Ġconvin": 7328,
      "Ġrainy": 7329,
      "ĠRalph": 7330,
      "Ġelbow": 7331,
      "Ġcloudy": 7332,
      "ĠStan": 7333,
      "Ġpostman": 7334,
      "Ġsniffing": 7335,
      "ĠUntil": 7336,
      "Ġgrandchild": 7337,
      "Ġappreciation": 7338,
      "Ġscrewdri": 7339,
      "Tweetie": 7340,
      "Ġspills": 7341,
      "Ġseashells": 7342,
      "Ġannoyed": 7343,
      "Abigail": 7344,
      "ĠCrabby": 7345,
      "Ġwaddled": 7346,
      "Ġencouraging": 7347,
      "Ġsyrup": 7348,
      "Ġanticipation": 7349,
      "Ġscrewdriver": 7350,
      "Back": 7351,
      "Tilly": 7352,
      "ae": 7353,
      "but": 7354,
      "found": 7355,
      "oss": 7356,
      "Ġtar": 7357,
      "Ġtipped": 7358,
      "Ġwag": 7359,
      "rey": 7360,
      "Ġlent": 7361,
      "ana": 7362,
      "onna": 7363,
      "espite": 7364,
      "ooking": 7365,
      "Ġramp": 7366,
      "Ġweeds": 7367,
      "Ġshady": 7368,
      "Ġkings": 7369,
      "Ġreun": 7370,
      "ĠMo": 7371,
      "Ġjars": 7372,
      "ĠAny": 7373,
      "Ġexcept": 7374,
      "ighting": 7375,
      "Ġnodd": 7376,
      "Ġchanging": 7377,
      "Ġwatering": 7378,
      "Ġsmallest": 7379,
      "Ġsnort": 7380,
      "Ġbravest": 7381,
      "Ġcheers": 7382,
      "ĠPandy": 7383,
      "Ġsweetest": 7384,
      "Ġworrying": 7385,
      "Ġsails": 7386,
      "Ġbelieving": 7387,
      "Ġheartbroken": 7388,
      "Ġlaying": 7389,
      "Ġpops": 7390,
      "Ġbells": 7391,
      "Ġnecklaces": 7392,
      "Ġsuggestion": 7393,
      "Ġpreparing": 7394,
      "Ġpedaled": 7395,
      "Ġreversed": 7396,
      "Ġstudents": 7397,
      "Ġincreasing": 7398,
      "Ġresponsib": 7399,
      "Quick": 7400,
      "Ġsuffering": 7401,
      "ĠSplash": 7402,
      "Ġconversation": 7403,
      "Ġofficers": 7404,
      "Bet": 7405,
      "Beth": 7406,
      "Karen": 7407,
      "Mine": 7408,
      "father": 7409,
      "munk": 7410,
      "ollen": 7411,
      "ĠX": 7412,
      "Ġties": 7413,
      "Ġtumbled": 7414,
      "Ġgonna": 7415,
      "ambled": 7416,
      "Ġstumble": 7417,
      "storm": 7418,
      "Ġreapp": 7419,
      "Ġswollen": 7420,
      "ÅĵOf": 7421,
      "Ġconqu": 7422,
      "Ġblocked": 7423,
      "Ġbiting": 7424,
      "Ġnests": 7425,
      "Ġrespected": 7426,
      "Ġangels": 7427,
      "Ġpepperoni": 7428,
      "Ġbatteries": 7429,
      "Ġpermitted": 7430,
      "Ġzebras": 7431,
      "Ġmeowing": 7432,
      "Ġpuppet": 7433,
      "Ġgears": 7434,
      "Ġconcert": 7435,
      "Ġreassured": 7436,
      "Ġtrotted": 7437,
      "Bill": 7438,
      "Bunny": 7439,
      "Each": 7440,
      "Jamie": 7441,
      "Rob": 7442,
      "cie": 7443,
      "wise": 7444,
      "Ġtoss": 7445,
      "Ġheight": 7446,
      "ĠTuna": 7447,
      "ĠSal": 7448,
      "order": 7449,
      "Ġund": 7450,
      "Ġrather": 7451,
      "Ġstall": 7452,
      "ĠthatÃ¢": 7453,
      "Ġev": 7454,
      "Ġearn": 7455,
      "ĠMart": 7456,
      "Ġsmashed": 7457,
      "Ġanger": 7458,
      "Ġspook": 7459,
      "Ġmemb": 7460,
      "Ġnewfound": 7461,
      "Ġblond": 7462,
      "Ġthoughts": 7463,
      "Ġtapped": 7464,
      "Ġskunk": 7465,
      "Ġquilt": 7466,
      "ection": 7467,
      "Whenever": 7468,
      "Ġwrigg": 7469,
      "Ġtoward": 7470,
      "athy": 7471,
      "Ġfires": 7472,
      "Ġdrown": 7473,
      "Ġcrashing": 7474,
      "Ġpromises": 7475,
      "Ġcounts": 7476,
      "ĠTodd": 7477,
      "Ġpaintbrush": 7478,
      "Ġplanting": 7479,
      "Ġvegg": 7480,
      "Ġstreets": 7481,
      "Ġpays": 7482,
      "Ġscrambled": 7483,
      "ĠZip": 7484,
      "Ġsoapy": 7485,
      "Ġsuits": 7486,
      "ĠDavey": 7487,
      "Ġdiscoveries": 7488,
      "Ġspeeding": 7489,
      "uctor": 7490,
      "Ġpassports": 7491,
      "Anne": 7492,
      "amboo": 7493,
      "Ġdelayed": 7494,
      "Ġwiggly": 7495,
      "Ġuniforms": 7496,
      "Ġefforts": 7497,
      "Ġdamaged": 7498,
      "Ġfirmly": 7499,
      "ĠLouise": 7500,
      "Ġmermaid": 7501,
      "Ġspooky": 7502,
      "Ġmembers": 7503,
      "?!\"": 7504,
      "Out": 7505,
      "Rachel": 7506,
      "ms": 7507,
      "oey": 7508,
      "prin": 7509,
      "sie": 7510,
      "vas": 7511,
      "Ġwoof": 7512,
      "Ġhoo": 7513,
      "Ġpound": 7514,
      "Ġnuzz": 7515,
      "ances": 7516,
      "orter": 7517,
      "ĠHope": 7518,
      "amma": 7519,
      "Ġbeating": 7520,
      "Ġsoot": 7521,
      "ading": 7522,
      "ĠMuffin": 7523,
      "ugs": 7524,
      "Ġsped": 7525,
      "fus": 7526,
      "ĠAmanda": 7527,
      "romise": 7528,
      "usty": 7529,
      "ĠFuzz": 7530,
      "ĠFiona": 7531,
      "ĠFido": 7532,
      "Ġcleared": 7533,
      "ÅĵOkay": 7534,
      "Ġdangers": 7535,
      "Ġcleaner": 7536,
      "ĠGina": 7537,
      "Ġrains": 7538,
      "Ġhops": 7539,
      "Ġmonths": 7540,
      "Ġtablet": 7541,
      "Ġjudges": 7542,
      "Ġshaped": 7543,
      "Ġmints": 7544,
      "Ġbandages": 7545,
      "Ġpanicked": 7546,
      "Ġtidied": 7547,
      "Ġclearly": 7548,
      "Ġfills": 7549,
      "Ġaddress": 7550,
      "Ġfishes": 7551,
      "Ġcovering": 7552,
      "Ġmagnif": 7553,
      "Ġfrowning": 7554,
      "ivia": 7555,
      "Ġcuddles": 7556,
      "Ġsurfing": 7557,
      "Ġmillion": 7558,
      "Ġexercises": 7559,
      "Ġbreathing": 7560,
      "Ġstroke": 7561,
      "Ġpurrs": 7562,
      "Ġdiscussing": 7563,
      "Ġbrushing": 7564,
      "ĠMaddy": 7565,
      "ĠQuick": 7566,
      "Ġoppos": 7567,
      "Ġinspired": 7568,
      "Ġconductor": 7569,
      "steps": 7570,
      "Ġtissue": 7571,
      "Ġtarget": 7572,
      "Ġveggies": 7573,
      "Penny": 7574,
      "water": 7575,
      "Ġdep": 7576,
      "ening": 7577,
      "Ġnur": 7578,
      "Ġrout": 7579,
      "Ġsoaking": 7580,
      "Ġkittens": 7581,
      "Ġseals": 7582,
      "Ġcanvas": 7583,
      "Ġalien": 7584,
      "Ġtreated": 7585,
      "Ġthanking": 7586,
      "ĠFighting": 7587,
      "Ġtrans": 7588,
      "Ġuntie": 7589,
      "ĠCle": 7590,
      "asty": 7591,
      "ÅĵHey": 7592,
      "Ġdoorway": 7593,
      "ĠPaula": 7594,
      "ĠRock": 7595,
      "Ġnights": 7596,
      "ĠThatÃ¢": 7597,
      "Ġsmelling": 7598,
      "ĠKelly": 7599,
      "Ġsparks": 7600,
      "Ġsprout": 7601,
      "Ġpackages": 7602,
      "Ġdesper": 7603,
      "ails": 7604,
      "Ġpuzzled": 7605,
      "Ġfootsteps": 7606,
      "Ġtoolbox": 7607,
      "ĠAli": 7608,
      "ĠAlison": 7609,
      "Ġreminding": 7610,
      "Ġtidying": 7611,
      "Ġwisely": 7612,
      "Ġsqueezing": 7613,
      "ĠUp": 7614,
      "Ġtravels": 7615,
      "Ġgrandfather": 7616,
      "Ġpigeons": 7617,
      "Ġloading": 7618,
      "Ġartwork": 7619,
      "Ġmagazines": 7620,
      "Ġdisplayed": 7621,
      "Ġprevented": 7622,
      "Chloe": 7623,
      "Ġsqueak": 7624,
      "Ġadmiration": 7625,
      "Ġglobe": 7626,
      "ĠMaya": 7627,
      "Ġmaterial": 7628,
      "Ġexperienced": 7629,
      "Ġrefuse": 7630,
      "Ġoccasion": 7631,
      "eeling": 7632,
      "Ġconvinced": 7633,
      "Ġreunited": 7634,
      "Hannah": 7635,
      "bage": 7636,
      "cent": 7637,
      "mi": 7638,
      "pen": 7639,
      "Ġsou": 7640,
      "rew": 7641,
      "Ġcoug": 7642,
      "Ġheaven": 7643,
      "Ġmoo": 7644,
      "ĠTake": 7645,
      "arrow": 7646,
      "Ġger": 7647,
      "Ġnasty": 7648,
      "Ġsav": 7649,
      "ĠSleep": 7650,
      "ended": 7651,
      "ighing": 7652,
      "Ġrays": 7653,
      "Ġmommies": 7654,
      "ĠMichael": 7655,
      "Ġank": 7656,
      "Ġspy": 7657,
      "lph": 7658,
      "aret": 7659,
      "Ġgoodby": 7660,
      "Ġchin": 7661,
      "Ġchilly": 7662,
      "Ġblinking": 7663,
      "inkle": 7664,
      "Ġfond": 7665,
      "ÅĵWhere": 7666,
      "ĠPu": 7667,
      "Ġdressing": 7668,
      "Ġduckling": 7669,
      "Ġswimmer": 7670,
      "ordinary": 7671,
      "Ġdistract": 7672,
      "Ġdespite": 7673,
      "Ġimaginary": 7674,
      "Ġhonking": 7675,
      "Ġshrunk": 7676,
      "Ġchocolates": 7677,
      "Ġbanged": 7678,
      "Ġpleaded": 7679,
      "Ġsolving": 7680,
      "Ġtrusting": 7681,
      "Ġgarbage": 7682,
      "Ġcrowns": 7683,
      "Ġcamel": 7684,
      "Ġguessing": 7685,
      "Ġextraordinary": 7686,
      "Ġsending": 7687,
      "...\"": 7688,
      "Ġrotting": 7689,
      "Ġvehicles": 7690,
      "Ġsqueaked": 7691,
      "Ġsewing": 7692,
      "Ġaccomplished": 7693,
      "Ġswayed": 7694,
      "Ġsternly": 7695,
      "Clara": 7696,
      "ĠTessa": 7697,
      "Two": 7698,
      "Ġmunching": 7699,
      "Ġevil": 7700,
      "Ġopposite": 7701,
      "Ġgoodbyes": 7702,
      "Claire": 7703,
      "Dear": 7704,
      "Take": 7705,
      "fia": 7706,
      "gain": 7707,
      "hind": 7708,
      "vant": 7709,
      "vroom": 7710,
      "hew": 7711,
      "Ġbamboo": 7712,
      "isions": 7713,
      "idence": 7714,
      "ori": 7715,
      "ĠHallow": 7716,
      "Ġrin": 7717,
      "ĠIm": 7718,
      "Ġwithin": 7719,
      "ĠBri": 7720,
      "ĠBaa": 7721,
      "Ġdod": 7722,
      "Ġdoves": 7723,
      "Ġwhoo": 7724,
      "ĠMaisy": 7725,
      "Ġloc": 7726,
      "Ġspat": 7727,
      "Ġexch": 7728,
      "Ġknots": 7729,
      "Ġmanners": 7730,
      "Ġlapt": 7731,
      "Ġlasers": 7732,
      "Ġflipped": 7733,
      "ilda": 7734,
      "ÅĵBut": 7735,
      "Ġdisc": 7736,
      "ĠNora": 7737,
      "ĠDog": 7738,
      "airy": 7739,
      "uggy": 7740,
      "Ġcomforting": 7741,
      "screen": 7742,
      "Ġgenerosity": 7743,
      "Ġscrub": 7744,
      "Ġprayers": 7745,
      "ĠSnap": 7746,
      "Ġwealth": 7747,
      "Ġenviron": 7748,
      "ĠFinn": 7749,
      "ĠPepper": 7750,
      "Ġemerged": 7751,
      "Ġobeyed": 7752,
      "Ġcubes": 7753,
      "ĠMaddie": 7754,
      "Ġchipmunk": 7755,
      "Ġcustomers": 7756,
      "citedly": 7757,
      "Ġmasterp": 7758,
      "Ġresponded": 7759,
      "Ġnibbled": 7760,
      "Ġcocoon": 7761,
      "Ġgesture": 7762,
      "ĠHalloween": 7763,
      "Ġenvironment": 7764,
      "Any": 7765,
      "Watch": 7766,
      "eedy": 7767,
      "oc": 7768,
      "rink": 7769,
      "Ġhen": 7770,
      "Ġmood": 7771,
      "Ġmaker": 7772,
      "Ġnatur": 7773,
      "ĠSuper": 7774,
      "oration": 7775,
      "Ġinter": 7776,
      "Ġsheets": 7777,
      "ittered": 7778,
      "lyn": 7779,
      "icate": 7780,
      "Ġbride": 7781,
      "ĠWelcome": 7782,
      "Ġdecl": 7783,
      "Ġchanges": 7784,
      "Ġsunscreen": 7785,
      "Ġbrains": 7786,
      "Ġdonkey": 7787,
      "Ġsurprising": 7788,
      "acles": 7789,
      "Ġbusiness": 7790,
      "Ġmovements": 7791,
      "Ġmarve": 7792,
      "Ġvisits": 7793,
      "Ġgrows": 7794,
      "Ġcollap": 7795,
      "Ġafar": 7796,
      "Ġstorms": 7797,
      "Ġpinching": 7798,
      "Ġdigs": 7799,
      "Ġawful": 7800,
      "Always": 7801,
      "Ġunlo": 7802,
      "Ġshovels": 7803,
      "Ġconfidence": 7804,
      "Ġburying": 7805,
      "Ġpeeled": 7806,
      "Ġencouragement": 7807,
      "Ġpaddling": 7808,
      "Ġglittering": 7809,
      "Ġforgiving": 7810,
      "intment": 7811,
      "Ġtype": 7812,
      "Ġwrinkled": 7813,
      "Surprise": 7814,
      "Ġankle": 7815,
      "Ġlaptop": 7816,
      "Jess": 7817,
      "Rosie": 7818,
      "dress": 7819,
      "even": 7820,
      "ps": 7821,
      "we": 7822,
      "worm": 7823,
      "Ġting": 7824,
      "Ġwakes": 7825,
      "rect": 7826,
      "ĠTaking": 7827,
      "Ġgroom": 7828,
      "ider": 7829,
      "ats": 7830,
      "ĠSl": 7831,
      "ĠSimon": 7832,
      "anish": 7833,
      "immered": 7834,
      "elie": 7835,
      "Ġform": 7836,
      "rying": 7837,
      "artled": 7838,
      "ĠWilliam": 7839,
      "Ġwhoever": 7840,
      "Ġdecisions": 7841,
      "Ġflick": 7842,
      "Ġflip": 7843,
      "Ġwaters": 7844,
      "ipes": 7845,
      "ĠRyan": 7846,
      "Ġforgives": 7847,
      "issa": 7848,
      "Ġbits": 7849,
      "Ġhairdress": 7850,
      "boards": 7851,
      "Ġlessons": 7852,
      "Ġfloors": 7853,
      "Ġtighter": 7854,
      "Ġcompared": 7855,
      "ĠJennie": 7856,
      "Ġcupcake": 7857,
      "Ġjobs": 7858,
      "ĠOther": 7859,
      "Ġtroubles": 7860,
      "Ġpresented": 7861,
      "Ġmattered": 7862,
      "Ġrecorder": 7863,
      "Ġprick": 7864,
      "Ġsweep": 7865,
      "Ġpandas": 7866,
      "ĠSnowman": 7867,
      "Ġtires": 7868,
      "Ġrepeating": 7869,
      "Ġspells": 7870,
      "Ġlipstick": 7871,
      "Ġlanguages": 7872,
      "Ġbothering": 7873,
      "Ġsnaps": 7874,
      "ĠOlivia": 7875,
      "ĠMeg": 7876,
      "Ġleapt": 7877,
      "Ġbruises": 7878,
      "Ġcorrect": 7879,
      "Ġnearest": 7880,
      "Ġsadder": 7881,
      "Ġthorns": 7882,
      "Ġconflict": 7883,
      "Ġnodding": 7884,
      "Ġtransf": 7885,
      "Ġgerms": 7886,
      "Ġnatural": 7887,
      "Ġhairdresser": 7888,
      "Buddy": 7889,
      "Buzz": 7890,
      "Boys": 7891,
      "Get": 7892,
      "Jessie": 7893,
      "Pl": 7894,
      "evin": 7895,
      "lt": 7896,
      "line": 7897,
      "pes": 7898,
      "what": 7899,
      "Ġsill": 7900,
      "Ġsigning": 7901,
      "Ġtossed": 7902,
      "Ġbou": 7903,
      "ouched": 7904,
      "Ġdump": 7905,
      "Ġpins": 7906,
      "Ġsteth": 7907,
      "Ġshall": 7908,
      "Ġrely": 7909,
      "Ġloses": 7910,
      "ĠgirlÃ¢": 7911,
      "Ġclues": 7912,
      "Ġalthough": 7913,
      "Ġscent": 7914,
      "Ġscores": 7915,
      "âĤ¬,": 7916,
      "ĠLooking": 7917,
      "Ġpose": 7918,
      "Ġexploration": 7919,
      "ÅĵMaybe": 7920,
      "ÅĵSee": 7921,
      "Ġwinding": 7922,
      "ĠGre": 7923,
      "acle": 7924,
      "Ġclosing": 7925,
      "Ġleaking": 7926,
      "Ġcracks": 7927,
      "Ġparted": 7928,
      "Ġdripping": 7929,
      "Ġsnowy": 7930,
      "spe": 7931,
      "Ġdesigning": 7932,
      "Ġsurv": 7933,
      "Ġself": 7934,
      "ĠBruce": 7935,
      "ĠBecky": 7936,
      "Ġadds": 7937,
      "Ġjogger": 7938,
      "Ġhamster": 7939,
      "Ġfrowns": 7940,
      "Ġsweat": 7941,
      "Ġcombed": 7942,
      "Ġtaped": 7943,
      "Ġcomputers": 7944,
      "Ġwindowsill": 7945,
      "Ġunpacking": 7946,
      "Ġhooks": 7947,
      "Ġtearing": 7948,
      "ĠPatty": 7949,
      "Ġobserving": 7950,
      "Ġexplains": 7951,
      "Ġapplause": 7952,
      "Ġluckily": 7953,
      "Ġburger": 7954,
      "Ġfreezing": 7955,
      "Ġpurr": 7956,
      "Ġspits": 7957,
      "ĠVroom": 7958,
      "Ġoutfits": 7959,
      "Ġseagulls": 7960,
      "Ġtextures": 7961,
      "ĠNana": 7962,
      "Ġcottage": 7963,
      "Ġinstruments": 7964,
      "Ġexploded": 7965,
      "Brown": 7966,
      "ĠSkip": 7967,
      "Ġbouqu": 7968,
      "Ġstethos": 7969,
      "Bang": 7970,
      "Joy": 7971,
      "Since": 7972,
      "belt": 7973,
      "bank": 7974,
      "baby": 7975,
      "jack": 7976,
      "ker": 7977,
      "Ġcongratul": 7978,
      "inging": 7979,
      "Ġgall": 7980,
      "Ġyel": 7981,
      "Ġrowed": 7982,
      "ĠBra": 7983,
      "ĠBecause": 7984,
      "Ġlies": 7985,
      "Ġshallow": 7986,
      "Ġshorter": 7987,
      "Ġscri": 7988,
      "Ġfailed": 7989,
      "ĠYouÃ¢": 7990,
      "Ġcarries": 7991,
      "ĠLia": 7992,
      "Ġcares": 7993,
      "ĠDespite": 7994,
      "antha": 7995,
      "bbling": 7996,
      "anda": 7997,
      "Ġstrum": 7998,
      "Ġsnapping": 7999,
      "ortunately": 8000,
      "ĠJoanna": 8001,
      "aste": 8002,
      "ÅĵThe": 8003,
      "ÅĵWho": 8004,
      "bee": 8005,
      "LetÃ¢": 8006,
      "Ġcompete": 8007,
      "ĠKaty": 8008,
      "Ġprod": 8009,
      "Ġcaw": 8010,
      "Ġgiggles": 8011,
      "ĠAlbert": 8012,
      "Ġsprays": 8013,
      "Ġrobots": 8014,
      "Ġstretches": 8015,
      "Ġ''": 8016,
      "Ġclassmates": 8017,
      "Ġwiser": 8018,
      "ĠZoey": 8019,
      "Meanwhile": 8020,
      "Ġapologised": 8021,
      "Ġscarecrow": 8022,
      "Ġsweaty": 8023,
      "Ġbeetles": 8024,
      "Ġmember": 8025,
      "Ġerase": 8026,
      "Ġstamped": 8027,
      "Ġscooters": 8028,
      "Ġfilms": 8029,
      "Ġbeeped": 8030,
      "ĠRoger": 8031,
      "Ġtubes": 8032,
      "Ġtraveling": 8033,
      "Ġlumberjack": 8034,
      "Ġbothered": 8035,
      "Ġsimply": 8036,
      "Ġrepeats": 8037,
      "Ġsirens": 8038,
      "Ġfocus": 8039,
      "asmine": 8040,
      "Ġcotton": 8041,
      "ĠLibby": 8042,
      "Ġastronauts": 8043,
      "Ġaisle": 8044,
      "Ġmasterpiece": 8045,
      "Ġdeclared": 8046,
      "Ġbouquet": 8047,
      "Liz": 8048,
      "Pretty": 8049,
      "Tony": 8050,
      "emy": 8051,
      "eens": 8052,
      "ibbit": 8053,
      "ris": 8054,
      "val": 8055,
      "well": 8056,
      "Â¦": 8057,
      "Ġactor": 8058,
      "Ġsipped": 8059,
      "Ġbound": 8060,
      "Ġdip": 8061,
      "erk": 8062,
      "ilities": 8063,
      "ĠSay": 8064,
      "Ġforts": 8065,
      "Ġshin": 8066,
      "ument": 8067,
      "âĤ¬Â¦": 8068,
      "ĠDuck": 8069,
      "ĠDory": 8070,
      "uddles": 8071,
      "anted": 8072,
      "Ġqueens": 8073,
      "Ġenemy": 8074,
      "Ġjoked": 8075,
      "Ġjoins": 8076,
      "ortun": 8077,
      "ĠCurious": 8078,
      "ÅĵGood": 8079,
      "Ġstored": 8080,
      "ĠGinger": 8081,
      "ĠSpeedy": 8082,
      "Ġbrightest": 8083,
      "Ġsquir": 8084,
      "Ġsquished": 8085,
      "Ġbuses": 8086,
      "Ġcrouched": 8087,
      "Ġpapa": 8088,
      "Ġtasting": 8089,
      "Ġcompan": 8090,
      "ĠFlora": 8091,
      "Ġcafe": 8092,
      "Ġwhistles": 8093,
      "Ġpurpose": 8094,
      "Ġbounces": 8095,
      "barrow": 8096,
      "Ġseatbelt": 8097,
      "Ġpizzas": 8098,
      "ĠStar": 8099,
      "Ġcroaked": 8100,
      "Ġwheelbarrow": 8101,
      "Ġrelaxing": 8102,
      "Ġhunting": 8103,
      "Ġaware": 8104,
      "Ġhoops": 8105,
      "Ġgrandd": 8106,
      "Ġdestroying": 8107,
      "Ġbracelets": 8108,
      "Ġcrocodiles": 8109,
      "Ġdisturbing": 8110,
      "ĠSeeing": 8111,
      "ĠDaniel": 8112,
      "Ġactivity": 8113,
      "ĠFrankie": 8114,
      "Ġexpecting": 8115,
      "ĠJanie": 8116,
      "Ġtemptation": 8117,
      "Ġopportun": 8118,
      "Ġsteering": 8119,
      "anne": 8120,
      "Ġcustomer": 8121,
      "ĠHootie": 8122,
      "Ġflashing": 8123,
      "Maddy": 8124,
      "Ġunwra": 8125,
      "Ġdrowned": 8126,
      "Ġnuzzled": 8127,
      "Brownie": 8128,
      "Ġstethoscope": 8129,
      "Ġcongratulated": 8130,
      "Ġyelped": 8131,
      "Abby": 8132,
      "Co": 8133,
      "Cindy": 8134,
      "Honey": 8135,
      "Lena": 8136,
      "Mira": 8137,
      "Too": 8138,
      "da": 8139,
      "flowers": 8140,
      "ift": 8141,
      "lers": 8142,
      "olph": 8143,
      "po": 8144,
      "py": 8145,
      "rily": 8146,
      "ĠOkay": 8147,
      "Ġtilted": 8148,
      "Ġsens": 8149,
      "Ġtheat": 8150,
      "Ġbless": 8151,
      "ita": 8152,
      "Ġdarl": 8153,
      "Ġwasting": 8154,
      "ĠTry": 8155,
      "ili": 8156,
      "ĠSadie": 8157,
      "ammy": 8158,
      "Ġbea": 8159,
      "Ġplayd": 8160,
      "ĠBuggy": 8161,
      "Ġshave": 8162,
      "Ġshimmering": 8163,
      "Ġbond": 8164,
      "icle": 8165,
      "icia": 8166,
      "Ġblown": 8167,
      "Ġtapping": 8168,
      "Ġuntied": 8169,
      "ĠJosie": 8170,
      "Ġchecks": 8171,
      "ctric": 8172,
      "Ġraising": 8173,
      "ÅĵSure": 8174,
      "sol": 8175,
      "ĠNice": 8176,
      "Ġstepping": 8177,
      "ulars": 8178,
      "Ġvisitors": 8179,
      "Ġpetting": 8180,
      "ugging": 8181,
      "Ġriverbank": 8182,
      "Ġwinking": 8183,
      "Ġcourt": 8184,
      "Ġnecks": 8185,
      "Ġcheerfully": 8186,
      "ÅĵIf": 8187,
      "ĠGold": 8188,
      "ĠOnly": 8189,
      "Ġbattle": 8190,
      "Ġbreaths": 8191,
      "Ġchecking": 8192,
      "Ġturtles": 8193,
      "Ġfigures": 8194,
      "Ġterrified": 8195,
      "Ġscares": 8196,
      "Ġlizards": 8197,
      "Ġrats": 8198,
      "Ġknocking": 8199,
      "Ġtraps": 8200,
      "udolph": 8201,
      "Ġbinoc": 8202,
      "Ġvests": 8203,
      "Ġshorts": 8204,
      "Ġapplauding": 8205,
      "Ġfleas": 8206,
      "Ġthumbs": 8207,
      "Ġflaps": 8208,
      "Ġinchworm": 8209,
      "ĠTwinkle": 8210,
      "ĠAnother": 8211,
      "ĠPlaying": 8212,
      "ĠNancy": 8213,
      "Ġembarrassing": 8214,
      "ĠPrince": 8215,
      "Ġnibble": 8216,
      "Ġconquered": 8217,
      "Ġnurses": 8218,
      "ĠPuppy": 8219,
      "Ġprickly": 8220,
      "Ġcompanion": 8221,
      "Ġtheatre": 8222,
      "Ġdarlings": 8223,
      "Ġbinoculars": 8224,
      "Aunt": 8225,
      "Poppy": 8226,
      "Sophia": 8227,
      "ew": 8228,
      "ieter": 8229,
      "jest": 8230,
      "lied": 8231,
      "Ġill": 8232,
      "Ġbas": 8233,
      "Ġcuc": 8234,
      "isdom": 8235,
      "Ġgaz": 8236,
      "atitude": 8237,
      "ani": 8238,
      "Ġrumbling": 8239,
      "rick": 8240,
      "ĠmomÃ¢": 8241,
      "Ġwhales": 8242,
      "ĠMag": 8243,
      "ĠMamma": 8244,
      "Ġboards": 8245,
      "aint": 8246,
      "Ġclerk": 8247,
      "getic": 8248,
      "Ġfaith": 8249,
      "Ġtreas": 8250,
      "Ġchili": 8251,
      "ĠEver": 8252,
      "Ġswat": 8253,
      "Ġbloss": 8254,
      "ĠDoug": 8255,
      "Ġquieter": 8256,
      "empt": 8257,
      "Ġends": 8258,
      "Ġgratitude": 8259,
      "ĠCD": 8260,
      "Ġglittered": 8261,
      "ĠPet": 8262,
      "ĠPretty": 8263,
      "Ġmeaning": 8264,
      "ĠRay": 8265,
      "ĠRos": 8266,
      "ĠRudolph": 8267,
      "Ġsquaw": 8268,
      "Ġsingers": 8269,
      "Ġsets": 8270,
      "Ġslowed": 8271,
      "ĠKevin": 8272,
      "Ġjoyfully": 8273,
      "Ġemb": 8274,
      "Ġattempt": 8275,
      "earl": 8276,
      "Ġtownspe": 8277,
      "Ġteachers": 8278,
      "Ġactive": 8279,
      "Stay": 8280,
      "Everyday": 8281,
      "Ġanswering": 8282,
      "Ġhumming": 8283,
      "Ġwhisk": 8284,
      "ippers": 8285,
      "Ġorders": 8286,
      "Ġcrawls": 8287,
      "Ġgoats": 8288,
      "Ġrescuing": 8289,
      "Ġtoothbrush": 8290,
      "Ġmischie": 8291,
      "Ġgrandbaby": 8292,
      "Ġquestioned": 8293,
      "Ġotters": 8294,
      "ĠFinny": 8295,
      "ĠTrust": 8296,
      "ĠPeggy": 8297,
      "Ġstudent": 8298,
      "Ġfloats": 8299,
      "ĠIsn": 8300,
      "Ġcalmer": 8301,
      "ĠJonny": 8302,
      "Ġwounds": 8303,
      "ĠBirdie": 8304,
      "Freddy": 8305,
      "Ġrobbers": 8306,
      "Ġbeaming": 8307,
      "ĠQuackers": 8308,
      "Ġmatey": 8309,
      "Ġtownspeople": 8310,
      "Ġmischievous": 8311,
      "Mon": 8312,
      "Red": 8313,
      "bu": 8314,
      "oor": 8315,
      "ping": 8316,
      "Ġtips": 8317,
      "Ġbitten": 8318,
      "Ġwaking": 8319,
      "Ġpouch": 8320,
      "omb": 8321,
      "Ġgrip": 8322,
      "enn": 8323,
      "Ġhab": 8324,
      "anie": 8325,
      "onnie": 8326,
      "oto": 8327,
      "endant": 8328,
      "Ġriddle": 8329,
      "Ġweighing": 8330,
      "ĠBang": 8331,
      "Ġwhimp": 8332,
      "ĠMan": 8333,
      "Ġlevers": 8334,
      "Ġflashed": 8335,
      "ĠDin": 8336,
      "ĠDot": 8337,
      "apot": 8338,
      "Ġposes": 8339,
      "Ġpeep": 8340,
      "Ġskies": 8341,
      "Ġoverhead": 8342,
      "Ġbubbly": 8343,
      "Ġsnug": 8344,
      "Ġgrumbled": 8345,
      "ĠCro": 8346,
      "Ġgardens": 8347,
      "Ġteapot": 8348,
      "Ġdoorbell": 8349,
      "Ġunfortunately": 8350,
      "Ġbluebird": 8351,
      "ĠSpanish": 8352,
      "ĠRiley": 8353,
      "Ġsandy": 8354,
      "Ġmesses": 8355,
      "Ġmessages": 8356,
      "Jacky": 8357,
      "Ġpolar": 8358,
      "Ġelectric": 8359,
      "Ġwelcoming": 8360,
      "Ġexpert": 8361,
      "Ġreturning": 8362,
      "Ġzooms": 8363,
      "Ġsupplied": 8364,
      "Ġreminds": 8365,
      "Ġburns": 8366,
      "Ġdecoration": 8367,
      "ĠZee": 8368,
      "Ġapology": 8369,
      "Ġawhile": 8370,
      "keepers": 8371,
      "Ġargument": 8372,
      "Ġsqueezes": 8373,
      "undred": 8374,
      "Ġsupported": 8375,
      "Ġkayaking": 8376,
      "Ġscolds": 8377,
      "Ġenergetic": 8378,
      "ĠPatches": 8379,
      "Ġstrokes": 8380,
      "Ġsqueaky": 8381,
      "Ġmosquitoes": 8382,
      "Ġfascinating": 8383,
      "Ġspilling": 8384,
      "Robbie": 8385,
      "etchup": 8386,
      "Ġclicked": 8387,
      "Ġswaying": 8388,
      "Ġcowboys": 8389,
      "ĠAuntie": 8390,
      "Ġcommunicate": 8391,
      "Ġexpression": 8392,
      "Ġmanager": 8393,
      "Ġsoothing": 8394,
      "Ġdiscou": 8395,
      "Ġtreasured": 8396,
      "Gina": 8397,
      "Mat": 8398,
      "Nice": 8399,
      "car": 8400,
      "please": 8401,
      "rough": 8402,
      "uice": 8403,
      "vince": 8404,
      "ware": 8405,
      "Ġwig": 8406,
      "Ġbuddy": 8407,
      "Ġhood": 8408,
      "Ġhike": 8409,
      "Ġwaded": 8410,
      "ĠTurt": 8411,
      "ĠTerry": 8412,
      "Ġnapped": 8413,
      "aning": 8414,
      "orking": 8415,
      "ormed": 8416,
      "lle": 8417,
      "llas": 8418,
      "Ġinvent": 8419,
      "Ġforce": 8420,
      "Ġformed": 8421,
      "Ġketchup": 8422,
      "Ġrewards": 8423,
      "ĠMother": 8424,
      "Ġashes": 8425,
      "Ġjing": 8426,
      "Ġclue": 8427,
      "ĠwhatÃ¢": 8428,
      "ĠLion": 8429,
      "ĠLots": 8430,
      "ĠEric": 8431,
      "ĠMomma": 8432,
      "emon": 8433,
      "Ġflowing": 8434,
      "ĠCla": 8435,
      "Yesterday": 8436,
      "Ġcheated": 8437,
      "Ġglisten": 8438,
      "Ġgliding": 8439,
      "ÅĵPlease": 8440,
      "Ġfinishes": 8441,
      "Ġconcent": 8442,
      "Ġconvince": 8443,
      "Ġdiso": 8444,
      "Josh": 8445,
      "Ġbaa": 8446,
      "Ġinstantly": 8447,
      "Ġdesc": 8448,
      "balls": 8449,
      "Ġpreschool": 8450,
      "Goodnight": 8451,
      "Ġwildflowers": 8452,
      "Ġminds": 8453,
      "Ġpleas": 8454,
      "Ġstirs": 8455,
      "Ġtesting": 8456,
      "Beep": 8457,
      "ĠBehind": 8458,
      "Ġtickling": 8459,
      "Ġteams": 8460,
      "Ġcheckout": 8461,
      "ĠFreddie": 8462,
      "Ġcheaper": 8463,
      "Ġlabels": 8464,
      "udged": 8465,
      "Ġumbrellas": 8466,
      "Ġimproving": 8467,
      "ĠPeep": 8468,
      "Ġscurrying": 8469,
      "Ġpedaling": 8470,
      "Ġannounced": 8471,
      "Ġparticularly": 8472,
      "Ġchoosing": 8473,
      "Ġannoying": 8474,
      "Ġyumm": 8475,
      "ĠMonkey": 8476,
      "ĠAshley": 8477,
      "Ġresponsibility": 8478,
      "Betty": 8479,
      "Ġroutine": 8480,
      "Ġgazing": 8481,
      "Ġembra": 8482,
      "Ġdiscouraged": 8483,
      "Ġconcentr": 8484,
      "Deal": 8485,
      "Hop": 8486,
      "Lucky": 8487,
      "Lizzy": 8488,
      "Ol": 8489,
      "Put": 8490,
      "Ralph": 8491,
      "Snow": 8492,
      "Zoe": 8493,
      "cuit": 8494,
      "fly": 8495,
      "five": 8496,
      "rite": 8497,
      "rupt": 8498,
      "ulp": 8499,
      "xophone": 8500,
      "Ãĥ": 8501,
      "Ġbis": 8502,
      "Ġfet": 8503,
      "Ġfade": 8504,
      "Ġlim": 8505,
      "Ġlump": 8506,
      "Ġcages": 8507,
      "ĠTiger": 8508,
      "ĠToto": 8509,
      "Ġodd": 8510,
      "Ġsaxophone": 8511,
      "ĠSummer": 8512,
      "ĠHold": 8513,
      "ĠIzzy": 8514,
      "elve": 8515,
      "elope": 8516,
      "Ġwhined": 8517,
      "Ġwhipped": 8518,
      "Ġkit": 8519,
      "ĠMin": 8520,
      "Ġsmelt": 8521,
      "ĠAr": 8522,
      "hings": 8523,
      "ĠJelly": 8524,
      "Ġclut": 8525,
      "arefully": 8526,
      "Ġsculp": 8527,
      "Ġroast": 8528,
      "Ġsometime": 8529,
      "Ġbirdhouse": 8530,
      "agine": 8531,
      "ĠLy": 8532,
      "Ġchill": 8533,
      "Ġswallow": 8534,
      "Ġswitched": 8535,
      "ĠDra": 8536,
      "oured": 8537,
      "Ġoverwhe": 8538,
      "Thomas": 8539,
      "Ġhardest": 8540,
      "Ġrocky": 8541,
      "Ġcons": 8542,
      "ĠPen": 8543,
      "ĠPearl": 8544,
      "Ġunco": 8545,
      "Ġwrit": 8546,
      "Ġmajest": 8547,
      "Ġdev": 8548,
      "Ġdears": 8549,
      "ĠRight": 8550,
      "Ġcris": 8551,
      "Ġtricycle": 8552,
      "Ġbowing": 8553,
      "asha": 8554,
      "Ġguide": 8555,
      "Ġguards": 8556,
      "Ġdryer": 8557,
      "Ġdrying": 8558,
      "ĠOink": 8559,
      "izza": 8560,
      "Ġtunes": 8561,
      "Everything": 8562,
      "ĠStella": 8563,
      "Ġcooper": 8564,
      "Ġships": 8565,
      "Ġcherish": 8566,
      "Ġharmony": 8567,
      "Alright": 8568,
      "Ġcops": 8569,
      "Ġlowered": 8570,
      "Ġscratching": 8571,
      "Ġtorto": 8572,
      "Ġmelody": 8573,
      "ĠPatch": 8574,
      "Ġquarre": 8575,
      "Ġburnt": 8576,
      "Ġsprinkle": 8577,
      "Ġoffering": 8578,
      "Ġairplanes": 8579,
      "ĠReady": 8580,
      "ibly": 8581,
      "Ġappearance": 8582,
      "Ġcontainer": 8583,
      "Ġhonks": 8584,
      "ĠElsie": 8585,
      "Ġgasps": 8586,
      "Ġinstrument": 8587,
      "Ġdetails": 8588,
      "Ġjuggling": 8589,
      "Ġslithered": 8590,
      "Ġcharacters": 8591,
      "Ġblonde": 8592,
      "elieve": 8593,
      "Ġsurvive": 8594,
      "Ġgallop": 8595,
      "Ġgranddaughter": 8596,
      "Ġbiscuit": 8597,
      "Ġsculpture": 8598,
      "Ġoverwhel": 8599,
      "Arrr": 8600,
      "Bu": 8601,
      "Big": 8602,
      "Feeling": 8603,
      "Got": 8604,
      "Never": 8605,
      "lor": 8606,
      "off": 8607,
      "Ġouch": 8608,
      "Ġicky": 8609,
      "rest": 8610,
      "Ġmunched": 8611,
      "Ġpuck": 8612,
      "Ġpipes": 8613,
      "ĠTy": 8614,
      "ĠTin": 8615,
      "ative": 8616,
      "ĠSil": 8617,
      "Ġplumber": 8618,
      "sty": 8619,
      "stantly": 8620,
      "Ġrebu": 8621,
      "ĠMoo": 8622,
      "ĠAng": 8623,
      "ics": 8624,
      "Ġknit": 8625,
      "ĠJet": 8626,
      "icking": 8627,
      "ĠWas": 8628,
      "Ġprank": 8629,
      "elle": 8630,
      "ooks": 8631,
      "Ġblushed": 8632,
      "Ġblades": 8633,
      "ĠDe": 8634,
      "aps": 8635,
      "Ġhoot": 8636,
      "Ġpeas": 8637,
      "Ġslipping": 8638,
      "Ġslapping": 8639,
      "Ġbund": 8640,
      "ĠSofia": 8641,
      "Ġglared": 8642,
      "Ġunderwater": 8643,
      "Ġcleans": 8644,
      "ĠPaw": 8645,
      "Ġrealizes": 8646,
      "Ġunable": 8647,
      "ĠGabby": 8648,
      "Ġsurely": 8649,
      "ĠRoo": 8650,
      "Ġsquinted": 8651,
      "Ġdifferently": 8652,
      "Ġfloppy": 8653,
      "Ġsweetly": 8654,
      "iggle": 8655,
      "Ġbuckled": 8656,
      "Ġbenches": 8657,
      "Ġinvites": 8658,
      "Ġpatients": 8659,
      "ĠOak": 8660,
      "ĠOuch": 8661,
      "Ġfeathered": 8662,
      "Ġfootprin": 8663,
      "Ġpasses": 8664,
      "Ġservant": 8665,
      "ĠStill": 8666,
      "ĠDonÃ¢": 8667,
      "ĠBea": 8668,
      "Ġchews": 8669,
      "Ġmiracle": 8670,
      "Ġsharks": 8671,
      "Ġzips": 8672,
      "ĠAlexa": 8673,
      "Ġsupporting": 8674,
      "Ġmayor": 8675,
      "Ġcrystals": 8676,
      "Ġbackpacks": 8677,
      "Ġhaircuts": 8678,
      "Ġunlocking": 8679,
      "Ġpressing": 8680,
      "Choo": 8681,
      "Ġmeatballs": 8682,
      "Quack": 8683,
      "ĠCatty": 8684,
      "Ġopinions": 8685,
      "Mikey": 8686,
      "ĠJonathan": 8687,
      "ĠOutside": 8688,
      "Ġattacked": 8689,
      "ĠSmokey": 8690,
      "Ġpossess": 8691,
      "Ġdefeated": 8692,
      "Ġpositive": 8693,
      "Ġwriggled": 8694,
      "Ġdodged": 8695,
      "Ġcollapsed": 8696,
      "Ġcorrectly": 8697,
      "Ġpeeped": 8698,
      "Ġglistening": 8699,
      "Ġdisobey": 8700,
      "Ġwriter": 8701,
      ",'": 8702,
      "Gre": 8703,
      "Gabby": 8704,
      "Jacob": 8705,
      "Kayla": 8706,
      "Mabel": 8707,
      "Papa": 8708,
      "abr": 8709,
      "ders": 8710,
      "just": 8711,
      "lo": 8712,
      "mie": 8713,
      "Ġ5": 8714,
      "Ġtum": 8715,
      "Ġtopp": 8716,
      "Ġbomb": 8717,
      "Ġhundred": 8718,
      "Ġlar": 8719,
      "erg": 8720,
      "ering": 8721,
      "Ġwashes": 8722,
      "ĠTime": 8723,
      "Ġhaven": 8724,
      "Ġthump": 8725,
      "ĠHoney": 8726,
      "Ġinches": 8727,
      "Ġroo": 8728,
      "aming": 8729,
      "Ġbeast": 8730,
      "chy": 8731,
      "Ġshines": 8732,
      "Ġnoticing": 8733,
      "Ġwhine": 8734,
      "ĠMine": 8735,
      "Ġspare": 8736,
      "ĠJason": 8737,
      "Ġbacks": 8738,
      "Ġfunn": 8739,
      "Ġroamed": 8740,
      "ĠWoo": 8741,
      "ĠWisdom": 8742,
      "Ġworst": 8743,
      "ddie": 8744,
      "Ġparks": 8745,
      "ĠLenny": 8746,
      "Ġblob": 8747,
      "uster": 8748,
      "Ġsleds": 8749,
      "Ġfoam": 8750,
      "ĠJackÃ¢": 8751,
      "Ġfift": 8752,
      "Ġglided": 8753,
      "Ġglimmering": 8754,
      "Ġracer": 8755,
      "ÅĵHow": 8756,
      "Ġbadger": 8757,
      "ĠPink": 8758,
      "ĠPup": 8759,
      "ĠRuth": 8760,
      "Ġstores": 8761,
      "Ġcrops": 8762,
      "ĠDove": 8763,
      "shadow": 8764,
      "Ġstew": 8765,
      "Ġhotter": 8766,
      "Ġcountries": 8767,
      "ĠGrand": 8768,
      "angle": 8769,
      "idents": 8770,
      "Ġsprang": 8771,
      "Ġsmoking": 8772,
      "Ġpractised": 8773,
      "Ġzookeepers": 8774,
      "Ġprotection": 8775,
      "Ġserving": 8776,
      "Ġharvest": 8777,
      "Ġmeadows": 8778,
      "Ġpostc": 8779,
      "Emmy": 8780,
      "Ġguarding": 8781,
      "Ġcurl": 8782,
      "faction": 8783,
      "Ġengines": 8784,
      "Ġcompliment": 8785,
      "Ġexercising": 8786,
      "aitlyn": 8787,
      "Ġpoisonous": 8788,
      "ccidents": 8789,
      "ĠVery": 8790,
      "Ġsatisfaction": 8791,
      "ĠMegan": 8792,
      "ĠJean": 8793,
      "Ġrevealing": 8794,
      "Ġbehaviour": 8795,
      "annon": 8796,
      "ĠPoor": 8797,
      "Which": 8798,
      "Someone": 8799,
      "Ġscenery": 8800,
      "Ġinju": 8801,
      "Suzy": 8802,
      "Ġcrafts": 8803,
      "Ġpounds": 8804,
      "ĠBrian": 8805,
      "Ġlocal": 8806,
      "Ġopportunity": 8807,
      "Ġbeaver": 8808,
      "Ġelectricity": 8809,
      "ĠClaus": 8810,
      "Ġoverwhelmed": 8811,
      "abrina": 8812,
      "Ġtummies": 8813,
      "!'.": 8814,
      "Curious": 8815,
      "David": 8816,
      "Fro": 8817,
      "Hold": 8818,
      "Hmm": 8819,
      "Im": 8820,
      "Moo": 8821,
      "Nick": 8822,
      "Sc": 8823,
      "Zoom": 8824,
      "aving": 8825,
      "gar": 8826,
      "oard": 8827,
      "pr": 8828,
      "ww": 8829,
      "Ġicing": 8830,
      "ĠYum": 8831,
      "Ġborn": 8832,
      "rent": 8833,
      "Ġfaint": 8834,
      "Ġlull": 8835,
      "Ġdou": 8836,
      "Ġdashed": 8837,
      "Ġheels": 8838,
      "ĠTe": 8839,
      "ĠTre": 8840,
      "aron": 8841,
      "iliar": 8842,
      "Ġgorge": 8843,
      "Ġnarrow": 8844,
      "ĠSweet": 8845,
      "Ġthie": 8846,
      "lest": 8847,
      "lephant": 8848,
      "ĠHar": 8849,
      "ĠHello": 8850,
      "igger": 8851,
      "Ġripp": 8852,
      "amiliar": 8853,
      "Ġstalk": 8854,
      "ppies": 8855,
      "stand": 8856,
      "ĠweÃ¢": 8857,
      "ĠBad": 8858,
      "Ġshattered": 8859,
      "Ġwhizz": 8860,
      "Ġkilled": 8861,
      "ĠAna": 8862,
      "ĠAgain": 8863,
      "ĠButt": 8864,
      "Ġgoodness": 8865,
      "ĠLand": 8866,
      "ĠDeal": 8867,
      "Ġability": 8868,
      "Ġaboard": 8869,
      "Ġhollow": 8870,
      "Ġhoses": 8871,
      "Ġpeac": 8872,
      "Ġtraded": 8873,
      "Ġtrigger": 8874,
      "Ġmoat": 8875,
      "Ġcheat": 8876,
      "ÅĵOk": 8877,
      "ĠPick": 8878,
      "Ġunless": 8879,
      "Ġthrill": 8880,
      "ĠGoose": 8881,
      "Ġfishy": 8882,
      "ĠRani": 8883,
      "Ġamused": 8884,
      "Ġsweeter": 8885,
      "ship": 8886,
      "shirt": 8887,
      "Ġsleeps": 8888,
      "rench": 8889,
      "Ġclaw": 8890,
      "Ġmovement": 8891,
      "Ġhunger": 8892,
      "Ġcompromise": 8893,
      "Ġcupboards": 8894,
      "ounce": 8895,
      "Ġpresence": 8896,
      "Ġpills": 8897,
      "Ġshrank": 8898,
      "Ġhummed": 8899,
      "ĠStartled": 8900,
      "Ġcoolest": 8901,
      "Ġbats": 8902,
      "Ġhonesty": 8903,
      "Ġpriv": 8904,
      "Ġstuffing": 8905,
      "Ġtickles": 8906,
      "Ġtentacles": 8907,
      "Although": 8908,
      "Ġbullies": 8909,
      "Ġcuddling": 8910,
      "Ġpantry": 8911,
      "Ġdesks": 8912,
      "Ġcurrent": 8913,
      "Ġspringtime": 8914,
      "Ġmiller": 8915,
      "ĠTrina": 8916,
      "Remy": 8917,
      "Ġchains": 8918,
      "Ġmugs": 8919,
      "Ġproviding": 8920,
      "abra": 8921,
      "Ġweighs": 8922,
      "Ġsincere": 8923,
      "Ġweapons": 8924,
      "Ġnightmares": 8925,
      "ÅĵWeÃ¢": 8926,
      "ĠRobin": 8927,
      "Ġheavily": 8928,
      "Ġcommon": 8929,
      "ĠPippa": 8930,
      "Ġecho": 8931,
      "Ġtypes": 8932,
      "Ġswirls": 8933,
      "Ġunfamiliar": 8934,
      "Ġexperiences": 8935,
      "Ġdefeat": 8936,
      "Ġproperty": 8937,
      "Ġinjured": 8938,
      "Julie": 8939,
      "Ġsnorted": 8940,
      "Ġmagnifying": 8941,
      "Ġcoughed": 8942,
      "Ġpleasant": 8943,
      "Ġtortoise": 8944,
      "Ġlarger": 8945,
      "Ġgorgeous": 8946,
      "Both": 8947,
      "Bird": 8948,
      "Je": 8949,
      "Jon": 8950,
      "Keep": 8951,
      "Mother": 8952,
      "Mimi": 8953,
      "Pam": 8954,
      "Paula": 8955,
      "Santa": 8956,
      "Ted": 8957,
      "Vroom": 8958,
      "ca": 8959,
      "lish": 8960,
      "rnie": 8961,
      "Ġ4": 8962,
      "ĠOf": 8963,
      "Ġarom": 8964,
      "Ġlush": 8965,
      "Ġdips": 8966,
      "Ġgates": 8967,
      "Ġnic": 8968,
      "ĠSince": 8969,
      "anced": 8970,
      "ute": 8971,
      "cker": 8972,
      "Ġrips": 8973,
      "Ġstur": 8974,
      "Ġplow": 8975,
      "ĠBow": 8976,
      "ĠBuster": 8977,
      "Ġwhir": 8978,
      "ĠMila": 8979,
      "ecul": 8980,
      "ĠAva": 8981,
      "ĠAccidents": 8982,
      "Ġalley": 8983,
      "Ġaloud": 8984,
      "Ġscow": 8985,
      "ĠWil": 8986,
      "ĠWhee": 8987,
      "Ġcarriage": 8988,
      "Ġlaunch": 8989,
      "ellie": 8990,
      "ĠLight": 8991,
      "Ġflock": 8992,
      "Ġblur": 8993,
      "ĠFel": 8994,
      "Ġpoles": 8995,
      "Ġpeak": 8996,
      "andra": 8997,
      "Ġtwelve": 8998,
      "Ġench": 8999,
      "Momma": 9000,
      "Ġuntangled": 9001,
      "Ġgrump": 9002,
      "cts": 9003,
      "ÅĵBe": 9004,
      "Ġenjoyable": 9005,
      "Ġdeed": 9006,
      "ĠNever": 9007,
      "Ġruff": 9008,
      "Ġmonth": 9009,
      "Ġwoodcut": 9010,
      "Ġwoodpe": 9011,
      "ĠAfterwards": 9012,
      "Ġarmor": 9013,
      "ĠKiki": 9014,
      "Ġcreams": 9015,
      "ĠFlo": 9016,
      "Ġgulp": 9017,
      "Ġattitude": 9018,
      "hole": 9019,
      "Ġalongside": 9020,
      "Dog": 9021,
      "oga": 9022,
      "ĠSteven": 9023,
      "Ġpeacefulness": 9024,
      "Ġbathing": 9025,
      "Ġweaker": 9026,
      "Ġtents": 9027,
      "Ġcaterpillars": 9028,
      "Spike": 9029,
      "Ġleans": 9030,
      "Ġstriking": 9031,
      "Ġencount": 9032,
      "ĠFran": 9033,
      "Ġleopards": 9034,
      "Ġvibr": 9035,
      "ĠShare": 9036,
      "Ġblend": 9037,
      "Ġrows": 9038,
      "Ġinvitations": 9039,
      "Ġladybird": 9040,
      "Davey": 9041,
      "Ġventure": 9042,
      "Ġsituations": 9043,
      "Ahoy": 9044,
      "Ġsilently": 9045,
      "ĠCheese": 9046,
      "Ġtempting": 9047,
      "Ġcondition": 9048,
      "Ġfacts": 9049,
      "True": 9050,
      "ĠBounce": 9051,
      "Ġreappeared": 9052,
      "Ġearned": 9053,
      "ĠMartin": 9054,
      "Outside": 9055,
      "Ġwhoosh": 9056,
      "Ġexchange": 9057,
      "Ġunwrapped": 9058,
      "ĠRosa": 9059,
      "Ġwhimpered": 9060,
      "Snowy": 9061,
      "Ġrebuild": 9062,
      "ĠButtons": 9063,
      "Ġpeacock": 9064,
      "Ġaroma": 9065,
      "Ġnicest": 9066,
      "Abbie": 9067,
      "Che": 9068,
      "Cat": 9069,
      "Luke": 9070,
      "Sus": 9071,
      "Sunny": 9072,
      "free": 9073,
      "gr": 9074,
      "hny": 9075,
      "hib": 9076,
      "mon": 9077,
      "pan": 9078,
      "paste": 9079,
      "sa": 9080,
      "site": 9081,
      "uess": 9082,
      "wing": 9083,
      "yle": 9084,
      "ĠOh": 9085,
      "Ġtot": 9086,
      "Ġdumb": 9087,
      "Ġpecul": 9088,
      "idi": 9089,
      "Ġnanny": 9090,
      "ĠSatur": 9091,
      "onest": 9092,
      "Ġthir": 9093,
      "lled": 9094,
      "iring": 9095,
      "Ġyelp": 9096,
      "Ġstate": 9097,
      "Ġplugged": 9098,
      "alled": 9099,
      "seed": 9100,
      "ecca": 9101,
      "Ġspies": 9102,
      "artment": 9103,
      "iciest": 9104,
      "ĠJasmine": 9105,
      "Ġlevel": 9106,
      "ĠWake": 9107,
      "Ġbirdseed": 9108,
      "Ġotherwise": 9109,
      "ĠDay": 9110,
      "ĠDuke": 9111,
      "Ġpoppies": 9112,
      "bba": 9113,
      "Ġpeels": 9114,
      "venir": 9115,
      "Ġhandy": 9116,
      "Ġkindest": 9117,
      "Ġadop": 9118,
      "ĠCarefully": 9119,
      "Ġraked": 9120,
      "Ġsooner": 9121,
      "Ġdollar": 9122,
      "Ġlistener": 9123,
      "ĠNathan": 9124,
[...]
